{
  "version": "1.0",
  "truncation": {
    "direction": "Right",
    "max_length": 256,
    "strategy": "LongestFirst",
    "stride": 0
  },
  "padding": {
    "strategy": {
      "Fixed": 256
    },
    "direction": "Right",
    "pad_to_multiple_of": null,
    "pad_id": 0,
    "pad_type_id": 0,
    "pad_token": "<PAD>"
  },
  "added_tokens": [
    {
      "id": 0,
      "content": "<PAD>",
      "single_word": false,
      "lstrip": false,
      "rstrip": false,
      "normalized": false,
      "special": true
    },
    {
      "id": 1,
      "content": "<UNK>",
      "single_word": false,
      "lstrip": false,
      "rstrip": false,
      "normalized": false,
      "special": true
    }
  ],
  "normalizer": {
    "type": "Lowercase"
  },
  "pre_tokenizer": {
    "type": "Whitespace"
  },
  "post_processor": {
    "type": "TemplateProcessing",
    "single": [
      {
        "Sequence": {
          "id": "A",
          "type_id": 0
        }
      }
    ],
    "pair": [
      {
        "Sequence": {
          "id": "A",
          "type_id": 0
        }
      },
      {
        "Sequence": {
          "id": "B",
          "type_id": 1
        }
      }
    ],
    "special_tokens": {
      "<PAD>": {
        "id": "<PAD>",
        "ids": [
          0
        ],
        "tokens": [
          "<PAD>"
        ]
      },
      "<UNK>": {
        "id": "<UNK>",
        "ids": [
          1
        ],
        "tokens": [
          "<UNK>"
        ]
      }
    }
  },
  "decoder": null,
  "model": {
    "type": "BPE",
    "dropout": null,
    "unk_token": "=<UNK>",
    "continuing_subword_prefix": null,
    "end_of_word_suffix": null,
    "fuse_unk": false,
    "byte_fallback": false,
    "ignore_merges": false,
    "vocab": {
      "<PAD>": 0,
      "<UNK>": 1,
      "\b": 2,
      "\u0010": 3,
      "!": 4,
      "\"": 5,
      "#": 6,
      "$": 7,
      "%": 8,
      "&": 9,
      "'": 10,
      "(": 11,
      ")": 12,
      "*": 13,
      "+": 14,
      ",": 15,
      "-": 16,
      ".": 17,
      "/": 18,
      "0": 19,
      "1": 20,
      "2": 21,
      "3": 22,
      "4": 23,
      "5": 24,
      "6": 25,
      "7": 26,
      "8": 27,
      "9": 28,
      ":": 29,
      ";": 30,
      "<": 31,
      "=": 32,
      ">": 33,
      "?": 34,
      "@": 35,
      "[": 36,
      "\\": 37,
      "]": 38,
      "^": 39,
      "_": 40,
      "`": 41,
      "a": 42,
      "b": 43,
      "c": 44,
      "d": 45,
      "e": 46,
      "f": 47,
      "g": 48,
      "h": 49,
      "i": 50,
      "j": 51,
      "k": 52,
      "l": 53,
      "m": 54,
      "n": 55,
      "o": 56,
      "p": 57,
      "q": 58,
      "r": 59,
      "s": 60,
      "t": 61,
      "u": 62,
      "v": 63,
      "w": 64,
      "x": 65,
      "y": 66,
      "z": 67,
      "{": 68,
      "|": 69,
      "}": 70,
      "~": 71,
      "": 72,
      "": 73,
      "": 74,
      "": 75,
      "": 76,
      "": 77,
      "": 78,
      "": 79,
      "": 80,
      "": 81,
      "¡": 82,
      "¢": 83,
      "£": 84,
      "¤": 85,
      "¦": 86,
      "§": 87,
      "¨": 88,
      "©": 89,
      "ª": 90,
      "«": 91,
      "­": 92,
      "®": 93,
      "°": 94,
      "³": 95,
      "´": 96,
      "·": 97,
      "º": 98,
      "»": 99,
      "½": 100,
      "¾": 101,
      "¿": 102,
      "ß": 103,
      "à": 104,
      "á": 105,
      "â": 106,
      "ã": 107,
      "ä": 108,
      "å": 109,
      "æ": 110,
      "ç": 111,
      "è": 112,
      "é": 113,
      "ê": 114,
      "ë": 115,
      "ì": 116,
      "í": 117,
      "î": 118,
      "ï": 119,
      "ð": 120,
      "ñ": 121,
      "ò": 122,
      "ó": 123,
      "ô": 124,
      "õ": 125,
      "ö": 126,
      "ø": 127,
      "ù": 128,
      "ú": 129,
      "û": 130,
      "ü": 131,
      "ý": 132,
      "þ": 133,
      "ğ": 134,
      "ı": 135,
      "ō": 136,
      "ż": 137,
      "א": 138,
      "ג": 139,
      "ו": 140,
      "י": 141,
      "כ": 142,
      "ל": 143,
      "מ": 144,
      "ן": 145,
      "ר": 146,
      "–": 147,
      "‘": 148,
      "’": 149,
      "“": 150,
      "”": 151,
      "…": 152,
      "″": 153,
      "₤": 154,
      "▼": 155,
      "★": 156,
      "、": 157,
      "": 158,
      "，": 159,
      "th": 160,
      "in": 161,
      "the": 162,
      "an": 163,
      "er": 164,
      "is": 165,
      "re": 166,
      "on": 167,
      "at": 168,
      "en": 169,
      "to": 170,
      "ou": 171,
      "ing": 172,
      "es": 173,
      "al": 174,
      "it": 175,
      "as": 176,
      "and": 177,
      "or": 178,
      "of": 179,
      "ar": 180,
      "ed": 181,
      "il": 182,
      "st": 183,
      "ch": 184,
      "ly": 185,
      "br": 186,
      "le": 187,
      "se": 188,
      "om": 189,
      "/>": 190,
      "mo": 191,
      "be": 192,
      "wh": 193,
      "ac": 194,
      "ic": 195,
      "ve": 196,
      "this": 197,
      "no": 198,
      "vi": 199,
      "ad": 200,
      "that": 201,
      "ver": 202,
      "lo": 203,
      "li": 204,
      "ut": 205,
      "ent": 206,
      "for": 207,
      "he": 208,
      "ter": 209,
      "ay": 210,
      "ion": 211,
      "am": 212,
      "im": 213,
      "gh": 214,
      "was": 215,
      "un": 216,
      "wi": 217,
      "movi": 218,
      "fil": 219,
      "de": 220,
      "/><": 221,
      "ro": 222,
      "film": 223,
      "ke": 224,
      "with": 225,
      "ab": 226,
      "el": 227,
      "ho": 228,
      "you": 229,
      "one": 230,
      "ri": 231,
      "movie": 232,
      "ha": 233,
      "ld": 234,
      "but": 235,
      "are": 236,
      "ge": 237,
      "su": 238,
      "out": 239,
      "ir": 240,
      "di": 241,
      "so": 242,
      "go": 243,
      "pe": 244,
      ".<": 245,
      "all": 246,
      "ce": 247,
      "com": 248,
      "do": 249,
      "not": 250,
      "ul": 251,
      "po": 252,
      "ally": 253,
      "ther": 254,
      "fe": 255,
      "tor": 256,
      "ts": 257,
      "his": 258,
      "sc": 259,
      "ma": 260,
      "ne": 261,
      "ome": 262,
      "her": 263,
      "tr": 264,
      "od": 265,
      "man": 266,
      "ill": 267,
      "me": 268,
      "us": 269,
      "..": 270,
      "ould": 271,
      "ap": 272,
      "ur": 273,
      "ex": 274,
      "have": 275,
      "act": 276,
      "some": 277,
      "ust": 278,
      "fr": 279,
      "per": 280,
      "who": 281,
      "est": 282,
      "pl": 283,
      "ct": 284,
      "ght": 285,
      "we": 286,
      "end": 287,
      "con": 288,
      "if": 289,
      "ess": 290,
      "very": 291,
      "by": 292,
      "id": 293,
      "thing": 294,
      "ain": 295,
      "they": 296,
      "wor": 297,
      "au": 298,
      "like": 299,
      "how": 300,
      "see": 301,
      "ere": 302,
      "ant": 303,
      "ag": 304,
      "bo": 305,
      "ell": 306,
      "tim": 307,
      "ev": 308,
      "ple": 309,
      "from": 310,
      "up": 311,
      "te": 312,
      "ok": 313,
      "ous": 314,
      "there": 315,
      "art": 316,
      "qu": 317,
      "co": 318,
      "pre": 319,
      "pro": 320,
      "sh": 321,
      "just": 322,
      "char": 323,
      "ack": 324,
      "ation": 325,
      "what": 326,
      "ast": 327,
      "my": 328,
      "oun": 329,
      "ough": 330,
      "way": 331,
      "has": 332,
      "other": 333,
      "about": 334,
      "can": 335,
      "ers": 336,
      "ate": 337,
      "ind": 338,
      "atch": 339,
      "any": 340,
      "ist": 341,
      "ig": 342,
      "good": 343,
      "der": 344,
      "ive": 345,
      "ment": 346,
      "she": 347,
      "more": 348,
      "ard": 349,
      "ol": 350,
      "get": 351,
      "now": 352,
      "acter": 353,
      "character": 354,
      "watch": 355,
      "tory": 356,
      "when": 357,
      "reat": 358,
      "ine": 359,
      "ure": 360,
      "ich": 361,
      "gr": 362,
      "ong": 363,
      "able": 364,
      "jo": 365,
      "would": 366,
      "sp": 367,
      "time": 368,
      "ss": 369,
      "even": 370,
      "ity": 371,
      "ound": 372,
      "wn": 373,
      "most": 374,
      "ite": 375,
      "our": 376,
      "ame": 377,
      "gu": 378,
      "ak": 379,
      "ful": 380,
      "story": 381,
      "ck": 382,
      "um": 383,
      "ty": 384,
      "int": 385,
      "which": 386,
      "wo": 387,
      "af": 388,
      "only": 389,
      "really": 390,
      "well": 391,
      "ye": 392,
      "show": 393,
      "ci": 394,
      "scen": 395,
      "their": 396,
      "had": 397,
      "aw": 398,
      "its": 399,
      "cl": 400,
      "ight": 401,
      "ble": 402,
      "than": 403,
      "uch": 404,
      "lot": 405,
      "him": 406,
      "pt": 407,
      "did": 408,
      "cr": 409,
      "were": 410,
      "play": 411,
      "ink": 412,
      "sel": 413,
      "fo": 414,
      "ade": 415,
      "ick": 416,
      "pr": 417,
      "don": 418,
      "over": 419,
      "great": 420,
      "ies": 421,
      "does": 422,
      "look": 423,
      "ie": 424,
      "ep": 425,
      "dis": 426,
      "bad": 427,
      "itt": 428,
      "cau": 429,
      "fa": 430,
      "age": 431,
      "bl": 432,
      "ass": 433,
      "ves": 434,
      "bet": 435,
      "pp": 436,
      "will": 437,
      "ence": 438,
      "off": 439,
      "low": 440,
      "them": 441,
      "much": 442,
      "ice": 443,
      "ars": 444,
      "ish": 445,
      "...": 446,
      "every": 447,
      "know": 448,
      "cause": 449,
      "fir": 450,
      "could": 451,
      "dire": 452,
      "real": 453,
      "peo": 454,
      "been": 455,
      "people": 456,
      "into": 457,
      "also": 458,
      "ud": 459,
      "first": 460,
      "mak": 461,
      "because": 462,
      "ber": 463,
      "think": 464,
      "ort": 465,
      "make": 466,
      "fun": 467,
      "du": 468,
      "ser": 469,
      "dr": 470,
      "son": 471,
      "ire": 472,
      "ving": 473,
      "then": 474,
      "ew": 475,
      "ff": 476,
      "ll": 477,
      "wr": 478,
      "made": 479,
      "where": 480,
      "too": 481,
      "ace": 482,
      "ide": 483,
      "thr": 484,
      "after": 485,
      "inter": 486,
      "work": 487,
      "self": 488,
      "ile": 489,
      "ever": 490,
      "part": 491,
      "movies": 492,
      "say": 493,
      "str": 494,
      "mar": 495,
      "cre": 496,
      "des": 497,
      "spe": 498,
      "seem": 499,
      "ach": 500,
      "ps": 501,
      "ated": 502,
      "characters": 503,
      "ical": 504,
      "actor": 505,
      "ren": 506,
      "love": 507,
      "though": 508,
      "fl": 509,
      "tain": 510,
      "view": 511,
      "ious": 512,
      "fin": 513,
      "ting": 514,
      "ang": 515,
      "back": 516,
      "hor": 517,
      "many": 518,
      "min": 519,
      "ans": 520,
      "films": 521,
      "less": 522,
      "ny": 523,
      "two": 524,
      "your": 525,
      "life": 526,
      "seen": 527,
      "plot": 528,
      "day": 529,
      "never": 530,
      "acting": 531,
      "being": 532,
      "ance": 533,
      "sho": 534,
      "ary": 535,
      "tal": 536,
      "gi": 537,
      "best": 538,
      "ces": 539,
      "mat": 540,
      "here": 541,
      "ta": 542,
      "ction": 543,
      "),": 544,
      "litt": 545,
      "ctor": 546,
      "ved": 547,
      "through": 548,
      "little": 549,
      "tur": 550,
      "et": 551,
      "ens": 552,
      "try": 553,
      ").": 554,
      "may": 555,
      "ef": 556,
      "cent": 557,
      "new": 558,
      "igh": 559,
      "sa": 560,
      "ose": 561,
      "mis": 562,
      "car": 563,
      "fri": 564,
      "fore": 565,
      "19": 566,
      "iz": 567,
      "point": 568,
      "kill": 569,
      "ra": 570,
      "amer": 571,
      "ually": 572,
      "ict": 573,
      "ven": 574,
      "--": 575,
      "while": 576,
      "better": 577,
      "ot": 578,
      "mon": 579,
      "ily": 580,
      "gen": 581,
      "sur": 582,
      "under": 583,
      "still": 584,
      "tru": 585,
      "scene": 586,
      "che": 587,
      "ning": 588,
      "!!": 589,
      "won": 590,
      "augh": 591,
      "par": 592,
      "find": 593,
      "should": 594,
      "ree": 595,
      "perfor": 596,
      "want": 597,
      "these": 598,
      "again": 599,
      "ase": 600,
      "op": 601,
      "old": 602,
      "ild": 603,
      "why": 604,
      "read": 605,
      "scenes": 606,
      "ry": 607,
      "feel": 608,
      "come": 609,
      "ertain": 610,
      "ought": 611,
      "cast": 612,
      "something": 613,
      "stand": 614,
      "10": 615,
      "friend": 616,
      "cho": 617,
      "sim": 618,
      "les": 619,
      "such": 620,
      "director": 621,
      "interest": 622,
      "happ": 623,
      "az": 624,
      "vers": 625,
      "beli": 626,
      "tri": 627,
      "ian": 628,
      "ath": 629,
      "sto": 630,
      "irl": 631,
      "ste": 632,
      "ror": 633,
      "fam": 634,
      "ably": 635,
      "ense": 636,
      "mus": 637,
      "ph": 638,
      "scre": 639,
      "girl": 640,
      "joy": 641,
      "ating": 642,
      "ise": 643,
      "those": 644,
      "down": 645,
      "red": 646,
      "ins": 647,
      "guy": 648,
      "turn": 649,
      "war": 650,
      "wom": 651,
      "funny": 652,
      "pret": 653,
      "got": 654,
      "ason": 655,
      "long": 656,
      "ob": 657,
      "watching": 658,
      "action": 659,
      "actors": 660,
      "comm": 661,
      "tak": 662,
      "arly": 663,
      "performan": 664,
      "big": 665,
      "star": 666,
      "doesn": 667,
      "ip": 668,
      "ave": 669,
      "didn": 670,
      "mem": 671,
      "years": 672,
      "ents": 673,
      "times": 674,
      "pos": 675,
      "comed": 676,
      "vis": 677,
      "before": 678,
      "another": 679,
      "ash": 680,
      "enjoy": 681,
      "ng": 682,
      "bu": 683,
      "set": 684,
      "actually": 685,
      "ater": 686,
      "produ": 687,
      "own": 688,
      "em": 689,
      "makes": 690,
      "high": 691,
      "going": 692,
      "nothing": 693,
      "gl": 694,
      "att": 695,
      "ways": 696,
      "young": 697,
      "vo": 698,
      "inal": 699,
      "put": 700,
      "bit": 701,
      "hu": 702,
      "fect": 703,
      "ial": 704,
      "sub": 705,
      "world": 706,
      "let": 707,
      "same": 708,
      "right": 709,
      "few": 710,
      "sm": 711,
      "laugh": 712,
      "ions": 713,
      "exc": 714,
      "orig": 715,
      "king": 716,
      "je": 717,
      "cle": 718,
      "far": 719,
      "diff": 720,
      "illi": 721,
      "cts": 722,
      "cor": 723,
      "ute": 724,
      "icul": 725,
      "**": 726,
      "horror": 727,
      "hard": 728,
      "por": 729,
      "ted": 730,
      "comple": 731,
      "screen": 732,
      "bor": 733,
      "comes": 734,
      "wood": 735,
      "sin": 736,
      "sing": 737,
      "appe": 738,
      "ual": 739,
      "light": 740,
      "pect": 741,
      "kid": 742,
      "things": 743,
      "quite": 744,
      "pretty": 745,
      "ner": 746,
      "thought": 747,
      "person": 748,
      "ten": 749,
      "ween": 750,
      "around": 751,
      "mind": 752,
      "col": 753,
      "need": 754,
      "hel": 755,
      "fact": 756,
      "ks": 757,
      "take": 758,
      "seems": 759,
      "writ": 760,
      "aut": 761,
      "ress": 762,
      "sure": 763,
      "ript": 764,
      "inv": 765,
      "rel": 766,
      "original": 767,
      "wonder": 768,
      "give": 769,
      "kind": 770,
      "cial": 771,
      "howe": 772,
      "ster": 773,
      "however": 774,
      "enough": 775,
      "americ": 776,
      "cont": 777,
      "pare": 778,
      "music": 779,
      "cept": 780,
      "saw": 781,
      "tell": 782,
      "both": 783,
      "boy": 784,
      "beg": 785,
      "ody": 786,
      "bas": 787,
      "must": 788,
      "main": 789,
      "pa": 790,
      "ness": 791,
      "worth": 792,
      "sex": 793,
      "class": 794,
      "ically": 795,
      "interesting": 796,
      "care": 797,
      "vel": 798,
      "fort": 799,
      "call": 800,
      "ia": 801,
      "gets": 802,
      "cour": 803,
      "ward": 804,
      "add": 805,
      "comedy": 806,
      "bar": 807,
      "ations": 808,
      "script": 809,
      "between": 810,
      "press": 811,
      "used": 812,
      "mom": 813,
      "hand": 814,
      "ately": 815,
      "series": 816,
      "ced": 817,
      "lead": 818,
      "beaut": 819,
      "expect": 820,
      "done": 821,
      "ending": 822,
      "sound": 823,
      "without": 824,
      "child": 825,
      "cine": 826,
      "row": 827,
      "ger": 828,
      "clo": 829,
      "form": 830,
      "reason": 831,
      "line": 832,
      "isn": 833,
      "val": 834,
      "grap": 835,
      "always": 836,
      "role": 837,
      "led": 838,
      "vious": 839,
      "hy": 840,
      "almost": 841,
      "cess": 842,
      "\",": 843,
      "head": 844,
      "cap": 845,
      "sequ": 846,
      "ue": 847,
      "mas": 848,
      "last": 849,
      "whole": 850,
      "coun": 851,
      "na": 852,
      "night": 853,
      "utes": 854,
      "ale": 855,
      "lin": 856,
      "might": 857,
      "least": 858,
      "pol": 859,
      "start": 860,
      "book": 861,
      "wer": 862,
      "differ": 863,
      "tem": 864,
      "ings": 865,
      "alo": 866,
      "tv": 867,
      "run": 868,
      "use": 869,
      "making": 870,
      "spo": 871,
      "hal": 872,
      "complete": 873,
      "away": 874,
      "ug": 875,
      "prob": 876,
      "mot": 877,
      "family": 878,
      "minutes": 879,
      "pie": 880,
      "men": 881,
      "ane": 882,
      "ms": 883,
      "rible": 884,
      "pres": 885,
      "audi": 886,
      "land": 887,
      "00": 888,
      "yes": 889,
      "lly": 890,
      "anything": 891,
      "stu": 892,
      "espe": 893,
      "hn": 894,
      "fol": 895,
      "since": 896,
      "med": 897,
      "ying": 898,
      "ouse": 899,
      "sy": 900,
      "ible": 901,
      "eve": 902,
      "sol": 903,
      "woman": 904,
      "probably": 905,
      "nor": 906,
      "mean": 907,
      "entertain": 908,
      "tit": 909,
      "cond": 910,
      "peri": 911,
      "yet": 912,
      "tw": 913,
      "performance": 914,
      "ature": 915,
      "iful": 916,
      "bre": 917,
      "played": 918,
      "blo": 919,
      "found": 920,
      "poss": 921,
      "pris": 922,
      "ional": 923,
      "came": 924,
      "john": 925,
      "dram": 926,
      "poor": 927,
      "ked": 928,
      "ange": 929,
      "\".": 930,
      "top": 931,
      "ton": 932,
      "cially": 933,
      "anyone": 934,
      "ark": 935,
      "da": 936,
      "worst": 937,
      "uring": 938,
      "bud": 939,
      "rather": 940,
      "place": 941,
      "wal": 942,
      "unt": 943,
      "oney": 944,
      "dialo": 945,
      "each": 946,
      "hum": 947,
      "den": 948,
      "dv": 949,
      "cur": 950,
      "sense": 951,
      "chr": 952,
      "ult": 953,
      "ments": 954,
      "sid": 955,
      "rest": 956,
      "fi": 957,
      "cut": 958,
      "dvd": 959,
      "ped": 960,
      "mer": 961,
      "beautiful": 962,
      "body": 963,
      "ext": 964,
      "house": 965,
      "ft": 966,
      "mur": 967,
      "looking": 968,
      "keep": 969,
      "har": 970,
      "cli": 971,
      "ign": 972,
      "having": 973,
      "ative": 974,
      "side": 975,
      "epis": 976,
      "especially": 977,
      "believe": 978,
      "happen": 979,
      "although": 980,
      "cid": 981,
      "cu": 982,
      "different": 983,
      "course": 984,
      "mor": 985,
      "vin": 986,
      "black": 987,
      "second": 988,
      "trying": 989,
      ".\"": 990,
      "sl": 991,
      "pict": 992,
      "direct": 993,
      "job": 994,
      "creat": 995,
      "everything": 996,
      "fan": 997,
      "istic": 998,
      "commend": 999,
      "goes": 1000,
      "amp": 1001,
      "human": 1002,
      "miss": 1003,
      "certain": 1004,
      "maybe": 1005,
      "ither": 1006,
      "ca": 1007,
      "half": 1008,
      "dan": 1009,
      "imag": 1010,
      "gether": 1011,
      "together": 1012,
      "fects": 1013,
      "three": 1014,
      "shows": 1015,
      "member": 1016,
      "plays": 1017,
      "american": 1018,
      "super": 1019,
      "father": 1020,
      "year": 1021,
      "wa": 1022,
      "ingly": 1023,
      "once": 1024,
      "proble": 1025,
      "recommend": 1026,
      "fall": 1027,
      "sup": 1028,
      "vide": 1029,
      "pul": 1030,
      "someone": 1031,
      "true": 1032,
      "fully": 1033,
      "sit": 1034,
      "stead": 1035,
      "ney": 1036,
      "ics": 1037,
      "vor": 1038,
      "follow": 1039,
      "plo": 1040,
      "ds": 1041,
      "rele": 1042,
      "money": 1043,
      "perfect": 1044,
      "posed": 1045,
      "effects": 1046,
      "looks": 1047,
      "usu": 1048,
      "watched": 1049,
      "wasn": 1050,
      "ni": 1051,
      "anim": 1052,
      "special": 1053,
      "death": 1054,
      "everyone": 1055,
      "nice": 1056,
      "ilar": 1057,
      "ele": 1058,
      "mi": 1059,
      "dead": 1060,
      "rom": 1061,
      "la": 1062,
      "short": 1063,
      "understand": 1064,
      "plain": 1065,
      "als": 1066,
      "ear": 1067,
      "sty": 1068,
      "piece": 1069,
      "bly": 1070,
      "vid": 1071,
      "obvious": 1072,
      "rid": 1073,
      "spect": 1074,
      "ank": 1075,
      "paren": 1076,
      "iting": 1077,
      "ality": 1078,
      "sk": 1079,
      "reg": 1080,
      "camer": 1081,
      "lu": 1082,
      "itch": 1083,
      "takes": 1084,
      "excell": 1085,
      "shot": 1086,
      "ates": 1087,
      "said": 1088,
      "ism": 1089,
      "ants": 1090,
      "ship": 1091,
      "hour": 1092,
      "during": 1093,
      "audience": 1094,
      "version": 1095,
      "instead": 1096,
      "later": 1097,
      "cou": 1098,
      "imp": 1099,
      "review": 1100,
      "else": 1101,
      "....": 1102,
      "gener": 1103,
      "fel": 1104,
      "ons": 1105,
      "wife": 1106,
      "gue": 1107,
      "gy": 1108,
      "ling": 1109,
      "left": 1110,
      "ences": 1111,
      "ross": 1112,
      "simp": 1113,
      "begin": 1114,
      "excellent": 1115,
      "cer": 1116,
      "ru": 1117,
      "seeing": 1118,
      "io": 1119,
      "others": 1120,
      "incl": 1121,
      "bur": 1122,
      "himself": 1123,
      "help": 1124,
      "que": 1125,
      "tray": 1126,
      "sha": 1127,
      "pass": 1128,
      "tra": 1129,
      "ames": 1130,
      "serious": 1131,
      "stup": 1132,
      "defin": 1133,
      "hero": 1134,
      "cal": 1135,
      "cy": 1136,
      "ore": 1137,
      "home": 1138,
      "idea": 1139,
      "fer": 1140,
      "ters": 1141,
      "llywood": 1142,
      "ned": 1143,
      "stupid": 1144,
      "heart": 1145,
      "ond": 1146,
      "invol": 1147,
      "face": 1148,
      "sci": 1149,
      "entire": 1150,
      "eas": 1151,
      "production": 1152,
      "sil": 1153,
      "scho": 1154,
      "budget": 1155,
      "ists": 1156,
      "along": 1157,
      "ah": 1158,
      "ited": 1159,
      "xt": 1160,
      "ject": 1161,
      "remember": 1162,
      "school": 1163,
      "friends": 1164,
      "ired": 1165,
      "open": 1166,
      "using": 1167,
      "fortun": 1168,
      "picture": 1169,
      "video": 1170,
      "fre": 1171,
      "ition": 1172,
      "lack": 1173,
      "cing": 1174,
      "air": 1175,
      "simply": 1176,
      "0s": 1177,
      "fair": 1178,
      "completely": 1179,
      "win": 1180,
      "song": 1181,
      "disap": 1182,
      "attem": 1183,
      "given": 1184,
      "suc": 1185,
      "ones": 1186,
      "mother": 1187,
      "full": 1188,
      "dark": 1189,
      "wrong": 1190,
      "comp": 1191,
      "dou": 1192,
      "sad": 1193,
      "believ": 1194,
      "portray": 1195,
      "boring": 1196,
      "sat": 1197,
      "absol": 1198,
      "mess": 1199,
      "hollywood": 1200,
      "disappoint": 1201,
      "ends": 1202,
      "dri": 1203,
      "kids": 1204,
      "absolute": 1205,
      "either": 1206,
      "cover": 1207,
      "band": 1208,
      "camera": 1209,
      "av": 1210,
      "except": 1211,
      "classic": 1212,
      "amaz": 1213,
      "eng": 1214,
      "women": 1215,
      "consid": 1216,
      "supposed": 1217,
      "cus": 1218,
      "num": 1219,
      "pport": 1220,
      "awful": 1221,
      "fight": 1222,
      "emot": 1223,
      "name": 1224,
      "small": 1225,
      "surpris": 1226,
      "tic": 1227,
      "graphy": 1228,
      "ley": 1229,
      "until": 1230,
      "power": 1231,
      "next": 1232,
      "vic": 1233,
      "particul": 1234,
      "performances": 1235,
      "dre": 1236,
      "consider": 1237,
      "bed": 1238,
      "pri": 1239,
      "fail": 1240,
      "cop": 1241,
      "truly": 1242,
      "couple": 1243,
      "typ": 1244,
      "exam": 1245,
      "viol": 1246,
      "jack": 1247,
      "hope": 1248,
      "case": 1249,
      "sul": 1250,
      "itten": 1251,
      "mr": 1252,
      "murder": 1253,
      "die": 1254,
      "mid": 1255,
      "tom": 1256,
      "deser": 1257,
      "gar": 1258,
      "getting": 1259,
      "favor": 1260,
      "pain": 1261,
      "lig": 1262,
      "cas": 1263,
      "vent": 1264,
      "bro": 1265,
      "sever": 1266,
      "flick": 1267,
      "ready": 1268,
      "omb": 1269,
      "definite": 1270,
      "humor": 1271,
      "ator": 1272,
      "lines": 1273,
      "ird": 1274,
      "feature": 1275,
      "ries": 1276,
      "bert": 1277,
      "haps": 1278,
      "oh": 1279,
      "terrible": 1280,
      "mich": 1281,
      "playing": 1282,
      "perhaps": 1283,
      "sort": 1284,
      "velo": 1285,
      "live": 1286,
      "loved": 1287,
      "moments": 1288,
      "god": 1289,
      "present": 1290,
      "master": 1291,
      "ital": 1292,
      "ode": 1293,
      "slow": 1294,
      "experi": 1295,
      "ities": 1296,
      "style": 1297,
      "wonderful": 1298,
      "itself": 1299,
      "quest": 1300,
      "dist": 1301,
      "ming": 1302,
      "uni": 1303,
      "drama": 1304,
      "talent": 1305,
      "includ": 1306,
      "ler": 1307,
      "male": 1308,
      "dy": 1309,
      "written": 1310,
      "stars": 1311,
      "mag": 1312,
      "develo": 1313,
      "guess": 1314,
      "fant": 1315,
      "stre": 1316,
      "doing": 1317,
      "often": 1318,
      "episode": 1319,
      "town": 1320,
      "cinemat": 1321,
      "coming": 1322,
      "tern": 1323,
      "mention": 1324,
      "brilli": 1325,
      "children": 1326,
      "ased": 1327,
      "early": 1328,
      "non": 1329,
      "definitely": 1330,
      "iness": 1331,
      "strong": 1332,
      "oc": 1333,
      "teen": 1334,
      "ility": 1335,
      "room": 1336,
      "plan": 1337,
      "liked": 1338,
      "gives": 1339,
      "unch": 1340,
      "ush": 1341,
      "turns": 1342,
      "gre": 1343,
      "impress": 1344,
      "dialogue": 1345,
      "spir": 1346,
      "went": 1347,
      "appear": 1348,
      "aged": 1349,
      "couldn": 1350,
      "ize": 1351,
      "ring": 1352,
      "deli": 1353,
      "actress": 1354,
      "hon": 1355,
      "unfortun": 1356,
      "title": 1357,
      "track": 1358,
      "ages": 1359,
      "pat": 1360,
      "break": 1361,
      "cinema": 1362,
      "leg": 1363,
      "desp": 1364,
      "credi": 1365,
      "felt": 1366,
      "finally": 1367,
      "absolutely": 1368,
      "sor": 1369,
      "extre": 1370,
      "key": 1371,
      "called": 1372,
      "tly": 1373,
      "ground": 1374,
      "certainly": 1375,
      "list": 1376,
      "entertaining": 1377,
      "christ": 1378,
      "fac": 1379,
      "lost": 1380,
      "ended": 1381,
      "crim": 1382,
      "become": 1383,
      "gg": 1384,
      "conf": 1385,
      "os": 1386,
      "known": 1387,
      "direction": 1388,
      "worse": 1389,
      "ese": 1390,
      "possible": 1391,
      "pu": 1392,
      ",\"": 1393,
      "pred": 1394,
      "thrill": 1395,
      "van": 1396,
      "mark": 1397,
      "dep": 1398,
      "close": 1399,
      "white": 1400,
      "log": 1401,
      "brilliant": 1402,
      "overall": 1403,
      "guys": 1404,
      "based": 1405,
      "sou": 1406,
      "psy": 1407,
      "lear": 1408,
      "cred": 1409,
      "several": 1410,
      "mal": 1411,
      "game": 1412,
      "beginning": 1413,
      "extreme": 1414,
      "relation": 1415,
      "spoil": 1416,
      "pur": 1417,
      "susp": 1418,
      "problem": 1419,
      "ier": 1420,
      "gun": 1421,
      "fine": 1422,
      "lie": 1423,
      "ju": 1424,
      "nam": 1425,
      "blood": 1426,
      "mentary": 1427,
      "against": 1428,
      "waste": 1429,
      "sis": 1430,
      "tot": 1431,
      "gor": 1432,
      "days": 1433,
      "ues": 1434,
      "fans": 1435,
      "ael": 1436,
      "evil": 1437,
      "lar": 1438,
      "ball": 1439,
      "wanted": 1440,
      "ann": 1441,
      "prom": 1442,
      "crit": 1443,
      "crap": 1444,
      "memor": 1445,
      "success": 1446,
      "ali": 1447,
      "bb": 1448,
      "selves": 1449,
      "tries": 1450,
      "ention": 1451,
      "lives": 1452,
      "jor": 1453,
      "deal": 1454,
      "totally": 1455,
      "writer": 1456,
      "effect": 1457,
      "engl": 1458,
      "indi": 1459,
      "final": 1460,
      "seemed": 1461,
      "ith": 1462,
      "despite": 1463,
      "vill": 1464,
      "arch": 1465,
      "example": 1466,
      "sum": 1467,
      "already": 1468,
      "works": 1469,
      "ized": 1470,
      "genre": 1471,
      "throughout": 1472,
      "vision": 1473,
      "attempt": 1474,
      "daugh": 1475,
      "ture": 1476,
      "type": 1477,
      "hit": 1478,
      "quality": 1479,
      "colle": 1480,
      "decid": 1481,
      "becomes": 1482,
      "foot": 1483,
      "michael": 1484,
      "hold": 1485,
      "hind": 1486,
      "bi": 1487,
      "killer": 1488,
      "ific": 1489,
      "nat": 1490,
      "myster": 1491,
      "ding": 1492,
      "wish": 1493,
      "support": 1494,
      "unfortunately": 1495,
      "touch": 1496,
      "stuff": 1497,
      "writing": 1498,
      "grou": 1499,
      "history": 1500,
      "past": 1501,
      "ben": 1502,
      "pick": 1503,
      "aring": 1504,
      "lea": 1505,
      "200": 1506,
      "adm": 1507,
      "prof": 1508,
      "lad": 1509,
      "allow": 1510,
      "tech": 1511,
      "import": 1512,
      "wants": 1513,
      "anno": 1514,
      "amazing": 1515,
      "rock": 1516,
      "ull": 1517,
      "pho": 1518,
      "convin": 1519,
      "horrible": 1520,
      "docu": 1521,
      "hilar": 1522,
      "unk": 1523,
      "matter": 1524,
      "parts": 1525,
      "city": 1526,
      "explo": 1527,
      "rating": 1528,
      "stay": 1529,
      "soon": 1530,
      "bus": 1531,
      "late": 1532,
      "today": 1533,
      "rif": 1534,
      "si": 1535,
      "!<": 1536,
      "din": 1537,
      "ude": 1538,
      "wise": 1539,
      "??": 1540,
      "speak": 1541,
      "ams": 1542,
      "girls": 1543,
      ").<": 1544,
      "anger": 1545,
      "mil": 1546,
      "mad": 1547,
      "viewer": 1548,
      "usual": 1549,
      "sw": 1550,
      "ris": 1551,
      "ek": 1552,
      "iv": 1553,
      "trans": 1554,
      "etc": 1555,
      "none": 1556,
      "bin": 1557,
      "situ": 1558,
      "sle": 1559,
      "contin": 1560,
      "vol": 1561,
      "eyes": 1562,
      "antic": 1563,
      "aim": 1564,
      "atic": 1565,
      "behind": 1566,
      "level": 1567,
      "hell": 1568,
      "scar": 1569,
      "enjoyed": 1570,
      "intel": 1571,
      "killed": 1572,
      "hop": 1573,
      "directed": 1574,
      "fig": 1575,
      "gave": 1576,
      "bal": 1577,
      "stop": 1578,
      "ago": 1579,
      "chang": 1580,
      "favorite": 1581,
      "apparen": 1582,
      "tt": 1583,
      "score": 1584,
      "police": 1585,
      "word": 1586,
      "ls": 1587,
      "dog": 1588,
      "novel": 1589,
      "major": 1590,
      "rent": 1591,
      "hun": 1592,
      "step": 1593,
      "ery": 1594,
      "daughter": 1595,
      "incredi": 1596,
      "exact": 1597,
      "decent": 1598,
      "wes": 1599,
      "var": 1600,
      "themselves": 1601,
      "aren": 1602,
      "swe": 1603,
      "sometimes": 1604,
      "event": 1605,
      "obviously": 1606,
      "four": 1607,
      "cool": 1608,
      "thinking": 1609,
      "pay": 1610,
      "stud": 1611,
      "dam": 1612,
      "arr": 1613,
      "ors": 1614,
      "moment": 1615,
      "group": 1616,
      "myself": 1617,
      "starts": 1618,
      "hilarious": 1619,
      "vil": 1620,
      "looked": 1621,
      "fron": 1622,
      "predict": 1623,
      "highly": 1624,
      "heard": 1625,
      "pose": 1626,
      "believable": 1627,
      "voice": 1628,
      "void": 1629,
      "cult": 1630,
      "ried": 1631,
      "tele": 1632,
      "order": 1633,
      "lim": 1634,
      "oper": 1635,
      "roll": 1636,
      "says": 1637,
      "tent": 1638,
      "ker": 1639,
      "took": 1640,
      "hus": 1641,
      "antly": 1642,
      "move": 1643,
      "anyway": 1644,
      "figure": 1645,
      "cinemato": 1646,
      "vir": 1647,
      "tail": 1648,
      "sent": 1649,
      "ridicul": 1650,
      "taking": 1651,
      "gn": 1652,
      "experience": 1653,
      "law": 1654,
      "hot": 1655,
      "feeling": 1656,
      "soci": 1657,
      "desc": 1658,
      "happens": 1659,
      "cost": 1660,
      "told": 1661,
      "lan": 1662,
      "umb": 1663,
      "brit": 1664,
      "check": 1665,
      "explain": 1666,
      "jok": 1667,
      "shock": 1668,
      "strange": 1669,
      "ail": 1670,
      "fire": 1671,
      "brother": 1672,
      "forget": 1673,
      "deep": 1674,
      "bring": 1675,
      "mc": 1676,
      "whe": 1677,
      "stories": 1678,
      "sym": 1679,
      "gore": 1680,
      "ridiculous": 1681,
      "appro": 1682,
      "polit": 1683,
      "living": 1684,
      "ards": 1685,
      "leave": 1686,
      "honest": 1687,
      "husband": 1688,
      "mart": 1689,
      "astic": 1690,
      "dle": 1691,
      "zomb": 1692,
      "ket": 1693,
      "involved": 1694,
      "abo": 1695,
      "violence": 1696,
      "graph": 1697,
      "extremely": 1698,
      "ys": 1699,
      "weak": 1700,
      "ished": 1701,
      "clear": 1702,
      "uses": 1703,
      "sn": 1704,
      "opin": 1705,
      "turned": 1706,
      "chance": 1707,
      "frank": 1708,
      "cheap": 1709,
      "david": 1710,
      "recent": 1711,
      "wouldn": 1712,
      "simple": 1713,
      "cannot": 1714,
      ".)": 1715,
      "country": 1716,
      "free": 1717,
      "bers": 1718,
      "inst": 1719,
      "quick": 1720,
      "james": 1721,
      "lou": 1722,
      "roles": 1723,
      "including": 1724,
      "change": 1725,
      "musical": 1726,
      "particularly": 1727,
      "english": 1728,
      "wit": 1729,
      "rench": 1730,
      "pleas": 1731,
      "moder": 1732,
      "makers": 1733,
      "doub": 1734,
      "save": 1735,
      "ham": 1736,
      "ared": 1737,
      "resul": 1738,
      "realistic": 1739,
      "res": 1740,
      "please": 1741,
      "rated": 1742,
      "ident": 1743,
      "happened": 1744,
      "taken": 1745,
      "20": 1746,
      "usually": 1747,
      "huge": 1748,
      "fut": 1749,
      "ral": 1750,
      "expected": 1751,
      "sequel": 1752,
      "bey": 1753,
      "dies": 1754,
      "dest": 1755,
      "tre": 1756,
      "robert": 1757,
      "shown": 1758,
      "stra": 1759,
      "ake": 1760,
      "bab": 1761,
      "space": 1762,
      "happy": 1763,
      "released": 1764,
      "willi": 1765,
      "jud": 1766,
      "ats": 1767,
      "box": 1768,
      "train": 1769,
      "oo": 1770,
      "talk": 1771,
      "stru": 1772,
      "natur": 1773,
      "near": 1774,
      "reality": 1775,
      "loc": 1776,
      "treat": 1777,
      "acted": 1778,
      "preci": 1779,
      "earth": 1780,
      "rad": 1781,
      "sch": 1782,
      "rip": 1783,
      "suspense": 1784,
      "ief": 1785,
      "seriously": 1786,
      "ational": 1787,
      "alone": 1788,
      "omin": 1789,
      "opening": 1790,
      "itive": 1791,
      "across": 1792,
      "words": 1793,
      "build": 1794,
      "number": 1795,
      "annoying": 1796,
      "jokes": 1797,
      "lik": 1798,
      "photo": 1799,
      "bel": 1800,
      "sam": 1801,
      "ints": 1802,
      "mist": 1803,
      "sold": 1804,
      "dro": 1805,
      "eye": 1806,
      "clich": 1807,
      "thor": 1808,
      "career": 1809,
      "ders": 1810,
      "197": 1811,
      "exactly": 1812,
      "dec": 1813,
      "shots": 1814,
      "hen": 1815,
      "cinematography": 1816,
      "saying": 1817,
      "hours": 1818,
      "typical": 1819,
      "suff": 1820,
      "develop": 1821,
      "documentary": 1822,
      "geor": 1823,
      "pped": 1824,
      "running": 1825,
      "modern": 1826,
      "avoid": 1827,
      "dialog": 1828,
      "yourself": 1829,
      "gang": 1830,
      "ances": 1831,
      "similar": 1832,
      "wards": 1833,
      "important": 1834,
      "relationship": 1835,
      "sen": 1836,
      "!!!": 1837,
      "urb": 1838,
      "itting": 1839,
      "del": 1840,
      "198": 1841,
      "hear": 1842,
      "gold": 1843,
      "...<": 1844,
      "azy": 1845,
      "fast": 1846,
      "among": 1847,
      "middle": 1848,
      "whose": 1849,
      "plac": 1850,
      "stick": 1851,
      "batt": 1852,
      "camp": 1853,
      "ony": 1854,
      "straight": 1855,
      "season": 1856,
      "ently": 1857,
      "learn": 1858,
      "lee": 1859,
      "fur": 1860,
      "ow": 1861,
      "lit": 1862,
      "ering": 1863,
      "apart": 1864,
      "team": 1865,
      "water": 1866,
      "ied": 1867,
      "female": 1868,
      "secre": 1869,
      "opinion": 1870,
      "enty": 1871,
      "exist": 1872,
      "started": 1873,
      "ung": 1874,
      "roy": 1875,
      "scary": 1876,
      "comment": 1877,
      "drug": 1878,
      "ze": 1879,
      "mee": 1880,
      "ref": 1881,
      "rich": 1882,
      "app": 1883,
      "mostly": 1884,
      "ky": 1885,
      "suck": 1886,
      "due": 1887,
      "ina": 1888,
      "beyond": 1889,
      "flo": 1890,
      "silly": 1891,
      "ili": 1892,
      "front": 1893,
      "hom": 1894,
      "villain": 1895,
      "possi": 1896,
      "predictable": 1897,
      "talking": 1898,
      "appears": 1899,
      "western": 1900,
      "lies": 1901,
      "episod": 1902,
      "ret": 1903,
      "somewhat": 1904,
      "jap": 1905,
      "knew": 1906,
      "knows": 1907,
      "ures": 1908,
      "shi": 1909,
      "sequence": 1910,
      "upon": 1911,
      "disappointed": 1912,
      "publ": 1913,
      "famous": 1914,
      "single": 1915,
      "****": 1916,
      "detail": 1917,
      "eu": 1918,
      "local": 1919,
      "attention": 1920,
      "ford": 1921,
      "giving": 1922,
      "apparently": 1923,
      "lor": 1924,
      "respect": 1925,
      "richar": 1926,
      "imagin": 1927,
      "rus": 1928,
      "remind": 1929,
      "finds": 1930,
      "plic": 1931,
      "basically": 1932,
      "bat": 1933,
      "grand": 1934,
      "thetic": 1935,
      "french": 1936,
      "pac": 1937,
      "equ": 1938,
      "problems": 1939,
      "moving": 1940,
      "post": 1941,
      "japan": 1942,
      "sets": 1943,
      "cru": 1944,
      "television": 1945,
      "tar": 1946,
      "intellig": 1947,
      "popul": 1948,
      "199": 1949,
      "sign": 1950,
      "episodes": 1951,
      "ered": 1952,
      "compare": 1953,
      "cliché": 1954,
      "agon": 1955,
      "subject": 1956,
      "state": 1957,
      "clearly": 1958,
      "thriller": 1959,
      "utter": 1960,
      "pping": 1961,
      "hate": 1962,
      "cident": 1963,
      "aver": 1964,
      "question": 1965,
      "theat": 1966,
      "atmo": 1967,
      "five": 1968,
      "atmosp": 1969,
      "hi": 1970,
      "british": 1971,
      "ump": 1972,
      "erial": 1973,
      "romantic": 1974,
      "necess": 1975,
      "!\"": 1976,
      "gan": 1977,
      "search": 1978,
      "appreci": 1979,
      "ken": 1980,
      "events": 1981,
      "ino": 1982,
      "ba": 1983,
      "comic": 1984,
      "tells": 1985,
      "ask": 1986,
      "paul": 1987,
      "sequences": 1988,
      "falls": 1989,
      "soundtrack": 1990,
      "cat": 1991,
      "prise": 1992,
      "sexual": 1993,
      "carto": 1994,
      "pal": 1995,
      "creep": 1996,
      "george": 1997,
      "effort": 1998,
      "hood": 1999,
      "throw": 2000,
      "eless": 2001,
      "beat": 2002,
      "ised": 2003,
      "songs": 2004,
      "vice": 2005,
      "intro": 2006,
      "ability": 2007,
      "previous": 2008,
      "easy": 2009,
      "entertainment": 2010,
      "usion": 2011,
      "twist": 2012,
      "port": 2013,
      "match": 2014,
      "narr": 2015,
      "dream": 2016,
      "fly": 2017,
      "future": 2018,
      "bul": 2019,
      "bill": 2020,
      "const": 2021,
      "whether": 2022,
      "dance": 2023,
      "dull": 2024,
      "unlike": 2025,
      "lots": 2026,
      "richard": 2027,
      "enjoyable": 2028,
      "easily": 2029,
      "stage": 2030,
      "flash": 2031,
      "attack": 2032,
      "fest": 2033,
      "above": 2034,
      "bes": 2035,
      "agree": 2036,
      "working": 2037,
      "kept": 2038,
      "haven": 2039,
      "chris": 2040,
      "ses": 2041,
      "doubt": 2042,
      "trou": 2043,
      "andy": 2044,
      "parents": 2045,
      "acy": 2046,
      "named": 2047,
      "visual": 2048,
      "material": 2049,
      "survi": 2050,
      "ceed": 2051,
      "doctor": 2052,
      "issu": 2053,
      "concer": 2054,
      "message": 2055,
      "wait": 2056,
      "points": 2057,
      "lady": 2058,
      "difficul": 2059,
      "monster": 2060,
      "supporting": 2061,
      "mise": 2062,
      "setting": 2063,
      "vamp": 2064,
      "filmed": 2065,
      "release": 2066,
      "brain": 2067,
      "arely": 2068,
      "max": 2069,
      "advent": 2070,
      "odd": 2071,
      "bot": 2072,
      "sister": 2073,
      "bunch": 2074,
      "han": 2075,
      "round": 2076,
      "flaw": 2077,
      "within": 2078,
      "tale": 2079,
      "gone": 2080,
      "slight": 2081,
      "period": 2082,
      "victim": 2083,
      "aust": 2084,
      "surprised": 2085,
      "personal": 2086,
      "peter": 2087,
      "tried": 2088,
      "adap": 2089,
      "needs": 2090,
      "pet": 2091,
      "ctive": 2092,
      "afr": 2093,
      "rap": 2094,
      "theater": 2095,
      "mach": 2096,
      "yor": 2097,
      "telling": 2098,
      "ension": 2099,
      "showing": 2100,
      "jim": 2101,
      "note": 2102,
      "sun": 2103,
      "zz": 2104,
      "inno": 2105,
      "truth": 2106,
      "buy": 2107,
      "ray": 2108,
      "theme": 2109,
      "claim": 2110,
      "sorry": 2111,
      "ged": 2112,
      "large": 2113,
      "tle": 2114,
      "fiel": 2115,
      "lat": 2116,
      "ultim": 2117,
      "rown": 2118,
      "pathetic": 2119,
      "reve": 2120,
      "deed": 2121,
      "attr": 2122,
      "storyline": 2123,
      "count": 2124,
      "public": 2125,
      "express": 2126,
      "actual": 2127,
      "viewing": 2128,
      "resp": 2129,
      "minute": 2130,
      "capture": 2131,
      "meaning": 2132,
      "contro": 2133,
      "50": 2134,
      "conne": 2135,
      "repe": 2136,
      "forward": 2137,
      "general": 2138,
      "profess": 2139,
      "ost": 2140,
      "paris": 2141,
      "dden": 2142,
      "mel": 2143,
      "sugg": 2144,
      "hol": 2145,
      "comments": 2146,
      "mystery": 2147,
      "oscar": 2148,
      "path": 2149,
      "lon": 2150,
      "pen": 2151,
      "contain": 2152,
      "fantastic": 2153,
      "editing": 2154,
      "studi": 2155,
      "!!!!": 2156,
      "bs": 2157,
      "demon": 2158,
      "boys": 2159,
      "kick": 2160,
      "jer": 2161,
      "ously": 2162,
      "feels": 2163,
      "accept": 2164,
      "okay": 2165,
      "asy": 2166,
      "medi": 2167,
      "prison": 2168,
      "30": 2169,
      "?<": 2170,
      "dramatic": 2171,
      "greatest": 2172,
      "',": 2173,
      "grow": 2174,
      "ution": 2175,
      "shoo": 2176,
      "nearly": 2177,
      "viewers": 2178,
      "ott": 2179,
      "pts": 2180,
      "teach": 2181,
      "means": 2182,
      "crime": 2183,
      "imagine": 2184,
      "elements": 2185,
      "ety": 2186,
      "gay": 2187,
      "herself": 2188,
      "ives": 2189,
      "mix": 2190,
      "iction": 2191,
      "difficult": 2192,
      "catch": 2193,
      "kills": 2194,
      "flu": 2195,
      "decided": 2196,
      "ially": 2197,
      "mary": 2198,
      "fit": 2199,
      "ines": 2200,
      "hur": 2201,
      "shame": 2202,
      "!)": 2203,
      "aid": 2204,
      "board": 2205,
      "fas": 2206,
      "met": 2207,
      "rit": 2208,
      "introdu": 2209,
      "uck": 2210,
      "lect": 2211,
      "db": 2212,
      "angel": 2213,
      "cin": 2214,
      "brought": 2215,
      "descri": 2216,
      "ga": 2217,
      "sudden": 2218,
      "business": 2219,
      "ka": 2220,
      "rate": 2221,
      "ening": 2222,
      "lock": 2223,
      "pure": 2224,
      "otic": 2225,
      "potent": 2226,
      "vampire": 2227,
      "street": 2228,
      "somehow": 2229,
      "begins": 2230,
      "animation": 2231,
      "weird": 2232,
      "joe": 2233,
      "deliver": 2234,
      "liter": 2235,
      "ights": 2236,
      "ury": 2237,
      "chees": 2238,
      "reviews": 2239,
      "leads": 2240,
      "nature": 2241,
      "writers": 2242,
      "america": 2243,
      "york": 2244,
      "imdb": 2245,
      "natural": 2246,
      "rac": 2247,
      "exe": 2248,
      "german": 2249,
      "ii": 2250,
      "secret": 2251,
      "dress": 2252,
      "background": 2253,
      "surprise": 2254,
      "ular": 2255,
      "accent": 2256,
      "psycho": 2257,
      "refer": 2258,
      "average": 2259,
      "third": 2260,
      "sed": 2261,
      "baby": 2262,
      "lame": 2263,
      "week": 2264,
      "killing": 2265,
      "crew": 2266,
      "gest": 2267,
      "anna": 2268,
      "mass": 2269,
      "lier": 2270,
      "forced": 2271,
      "prin": 2272,
      "atmosphere": 2273,
      "premise": 2274,
      "net": 2275,
      "whatever": 2276,
      "eventually": 2277,
      "stun": 2278,
      "contr": 2279,
      "iel": 2280,
      "berg": 2281,
      "convincing": 2282,
      "particular": 2283,
      "possibly": 2284,
      "tori": 2285,
      "hair": 2286,
      "ran": 2287,
      "indeed": 2288,
      "write": 2289,
      "clever": 2290,
      "stere": 2291,
      "commun": 2292,
      "amoun": 2293,
      "luck": 2294,
      "poorly": 2295,
      "bil": 2296,
      "reco": 2297,
      "situation": 2298,
      "stereo": 2299,
      "rific": 2300,
      "jour": 2301,
      "ana": 2302,
      "society": 2303,
      "thy": 2304,
      "battle": 2305,
      "needed": 2306,
      "sick": 2307,
      "focus": 2308,
      "standing": 2309,
      "phil": 2310,
      "aling": 2311,
      "emotional": 2312,
      "dem": 2313,
      "cons": 2314,
      "fresh": 2315,
      "reading": 2316,
      "ub": 2317,
      "fran": 2318,
      "discover": 2319,
      "romance": 2320,
      "80": 2321,
      "wall": 2322,
      "island": 2323,
      "leading": 2324,
      "interested": 2325,
      "memorable": 2326,
      "ica": 2327,
      "heav": 2328,
      "leaves": 2329,
      "unless": 2330,
      "ches": 2331,
      "anti": 2332,
      "thank": 2333,
      "logical": 2334,
      "dumb": 2335,
      "footage": 2336,
      "plus": 2337,
      "credits": 2338,
      "milli": 2339,
      "sens": 2340,
      "flat": 2341,
      "revol": 2342,
      "euro": 2343,
      "?\"": 2344,
      "effective": 2345,
      "became": 2346,
      "wil": 2347,
      "strug": 2348,
      "copy": 2349,
      "bored": 2350,
      "meet": 2351,
      "ban": 2352,
      "total": 2353,
      "hands": 2354,
      "further": 2355,
      "iment": 2356,
      "otherwise": 2357,
      "ram": 2358,
      "ko": 2359,
      "aging": 2360,
      "spirit": 2361,
      "field": 2362,
      "ager": 2363,
      "mentioned": 2364,
      "fu": 2365,
      "cir": 2366,
      "sleep": 2367,
      "worked": 2368,
      "meets": 2369,
      "cul": 2370,
      "/>\"": 2371,
      "superb": 2372,
      "exper": 2373,
      "disney": 2374,
      "beauty": 2375,
      "masterpiece": 2376,
      "venge": 2377,
      "cheesy": 2378,
      "emotion": 2379,
      "era": 2380,
      "features": 2381,
      "'.": 2382,
      "gotten": 2383,
      "unique": 2384,
      "ians": 2385,
      "recogn": 2386,
      "stal": 2387,
      "ula": 2388,
      "screenplay": 2389,
      "perfectly": 2390,
      "offic": 2391,
      "popular": 2392,
      "trash": 2393,
      "laughs": 2394,
      "japanese": 2395,
      "fat": 2396,
      "whom": 2397,
      "scient": 2398,
      "ges": 2399,
      "badly": 2400,
      "sounds": 2401,
      "force": 2402,
      "result": 2403,
      "sal": 2404,
      "inside": 2405,
      "meant": 2406,
      "concl": 2407,
      "extra": 2408,
      "crazy": 2409,
      "dow": 2410,
      "regard": 2411,
      "road": 2412,
      "scott": 2413,
      "cers": 2414,
      "trave": 2415,
      "quickly": 2416,
      "ugh": 2417,
      "thus": 2418,
      "towards": 2419,
      "company": 2420,
      "wol": 2421,
      "girlfriend": 2422,
      "embar": 2423,
      "keeps": 2424,
      "doll": 2425,
      "histor": 2426,
      "famili": 2427,
      "196": 2428,
      "cape": 2429,
      "cry": 2430,
      "aked": 2431,
      "incredibly": 2432,
      "suggest": 2433,
      "ient": 2434,
      "earlier": 2435,
      "ghost": 2436,
      "emp": 2437,
      "familiar": 2438,
      "sem": 2439,
      "idi": 2440,
      "acts": 2441,
      "cock": 2442,
      "science": 2443,
      "fairly": 2444,
      "gri": 2445,
      "green": 2446,
      "len": 2447,
      "imm": 2448,
      "directors": 2449,
      "occas": 2450,
      "cartoon": 2451,
      "ising": 2452,
      "nic": 2453,
      "ging": 2454,
      "members": 2455,
      "cross": 2456,
      "dim": 2457,
      "san": 2458,
      "older": 2459,
      "powerful": 2460,
      "ths": 2461,
      "ghts": 2462,
      "satis": 2463,
      "execut": 2464,
      "william": 2465,
      "cro": 2466,
      "development": 2467,
      "neg": 2468,
      "create": 2469,
      "realize": 2470,
      "alien": 2471,
      "langu": 2472,
      "creepy": 2473,
      "ric": 2474,
      "stri": 2475,
      "following": 2476,
      "cute": 2477,
      "various": 2478,
      "adapt": 2479,
      "ron": 2480,
      "plenty": 2481,
      "directing": 2482,
      "joke": 2483,
      "drag": 2484,
      "design": 2485,
      "sweet": 2486,
      "political": 2487,
      "ides": 2488,
      "casting": 2489,
      "?)": 2490,
      "rand": 2491,
      "recor": 2492,
      "apped": 2493,
      "store": 2494,
      "brings": 2495,
      "trail": 2496,
      "fighting": 2497,
      "broad": 2498,
      "bru": 2499,
      "pan": 2500,
      "sar": 2501,
      "zombie": 2502,
      "ded": 2503,
      "talented": 2504,
      "annel": 2505,
      "admit": 2506,
      "social": 2507,
      "party": 2508,
      "spent": 2509,
      "portrayed": 2510,
      "smo": 2511,
      "ordin": 2512,
      "\")": 2513,
      "ices": 2514,
      "prim": 2515,
      "filled": 2516,
      "prot": 2517,
      "mes": 2518,
      "reasons": 2519,
      "accur": 2520,
      "color": 2521,
      "necessary": 2522,
      "awn": 2523,
      "channel": 2524,
      "outside": 2525,
      "walk": 2526,
      "concept": 2527,
      "nud": 2528,
      "aste": 2529,
      "terror": 2530,
      "died": 2531,
      "shad": 2532,
      "table": 2533,
      "hitch": 2534,
      "insp": 2535,
      "missed": 2536,
      "passion": 2537,
      "deserves": 2538,
      "15": 2539,
      "hill": 2540,
      "wasted": 2541,
      "dar": 2542,
      "lyn": 2543,
      "fails": 2544,
      "amount": 2545,
      "gover": 2546,
      "wind": 2547,
      "missing": 2548,
      "cold": 2549,
      "produced": 2550,
      "biz": 2551,
      "danger": 2552,
      "wild": 2553,
      "suit": 2554,
      "py": 2555,
      "relig": 2556,
      "actions": 2557,
      "mir": 2558,
      "return": 2559,
      "escape": 2560,
      "itted": 2561,
      "fantasy": 2562,
      "manages": 2563,
      "mac": 2564,
      "phys": 2565,
      "invest": 2566,
      "ius": 2567,
      "fear": 2568,
      "expecting": 2569,
      "former": 2570,
      "bir": 2571,
      "ival": 2572,
      "west": 2573,
      "ideas": 2574,
      "attempts": 2575,
      "accident": 2576,
      "caught": 2577,
      "recently": 2578,
      "created": 2579,
      "ague": 2580,
      "fred": 2581,
      "national": 2582,
      "common": 2583,
      "194": 2584,
      "hardly": 2585,
      "spl": 2586,
      "logy": 2587,
      "cted": 2588,
      "active": 2589,
      "remake": 2590,
      "married": 2591,
      "laughing": 2592,
      "spoilers": 2593,
      "90": 2594,
      "subtle": 2595,
      "jane": 2596,
      "brief": 2597,
      "nudity": 2598,
      "gress": 2599,
      "akes": 2600,
      "desper": 2601,
      "wers": 2602,
      "aster": 2603,
      "positive": 2604,
      "draw": 2605,
      "italian": 2606,
      "pace": 2607,
      "credit": 2608,
      "office": 2609,
      "195": 2610,
      "rass": 2611,
      "rote": 2612,
      "filmmakers": 2613,
      "potential": 2614,
      "project": 2615,
      "crow": 2616,
      "fascin": 2617,
      "reach": 2618,
      "door": 2619,
      "century": 2620,
      "wrote": 2621,
      "chase": 2622,
      "(\"": 2623,
      "eli": 2624,
      "contri": 2625,
      "psych": 2626,
      "scream": 2627,
      "rob": 2628,
      "elling": 2629,
      "immedi": 2630,
      "sand": 2631,
      "inform": 2632,
      "bother": 2633,
      "gram": 2634,
      "embarrass": 2635,
      "bility": 2636,
      "lid": 2637,
      "scare": 2638,
      "intri": 2639,
      "europe": 2640,
      "ns": 2641,
      "vant": 2642,
      "mou": 2643,
      "arri": 2644,
      "compe": 2645,
      "waiting": 2646,
      "pack": 2647,
      "sess": 2648,
      "sadly": 2649,
      "incredible": 2650,
      "ships": 2651,
      "ki": 2652,
      "sell": 2653,
      "fash": 2654,
      "squ": 2655,
      "glad": 2656,
      "complex": 2657,
      "za": 2658,
      "slightly": 2659,
      "cei": 2660,
      "impressive": 2661,
      "ax": 2662,
      "onic": 2663,
      "iff": 2664,
      "funni": 2665,
      "approach": 2666,
      "trad": 2667,
      "considering": 2668,
      "ined": 2669,
      "intelligent": 2670,
      "culture": 2671,
      "language": 2672,
      "esome": 2673,
      "base": 2674,
      "successful": 2675,
      "rup": 2676,
      "def": 2677,
      "worthy": 2678,
      "spot": 2679,
      "dancing": 2680,
      "requ": 2681,
      "tension": 2682,
      "rain": 2683,
      "bizar": 2684,
      "moves": 2685,
      "aven": 2686,
      "pointless": 2687,
      "rey": 2688,
      "decides": 2689,
      "sey": 2690,
      "sees": 2691,
      "deci": 2692,
      "dete": 2693,
      "comput": 2694,
      "exciting": 2695,
      "genu": 2696,
      "pieces": 2697,
      "asher": 2698,
      "plane": 2699,
      "trouble": 2700,
      "bust": 2701,
      "mere": 2702,
      "value": 2703,
      "sters": 2704,
      "combin": 2705,
      "faith": 2706,
      "maker": 2707,
      "disturb": 2708,
      "gust": 2709,
      "deem": 2710,
      "depend": 2711,
      "pse": 2712,
      "izing": 2713,
      "entirely": 2714,
      "cam": 2715,
      "dad": 2716,
      "tough": 2717,
      "neither": 2718,
      "russ": 2719,
      "genuine": 2720,
      "bling": 2721,
      "follows": 2722,
      "bizarre": 2723,
      "bond": 2724,
      "enn": 2725,
      "gent": 2726,
      "compared": 2727,
      "choice": 2728,
      "kar": 2729,
      "bon": 2730,
      "dir": 2731,
      "itation": 2732,
      "iced": 2733,
      "blue": 2734,
      "types": 2735,
      "yeah": 2736,
      "thom": 2737,
      "portrayal": 2738,
      "college": 2739,
      "six": 2740,
      "appreciate": 2741,
      "suddenly": 2742,
      "blow": 2743,
      "alive": 2744,
      "craf": 2745,
      "hid": 2746,
      "hang": 2747,
      "iers": 2748,
      "brothers": 2749,
      "younger": 2750,
      "violent": 2751,
      "critic": 2752,
      "vour": 2753,
      "images": 2754,
      "rick": 2755,
      "ory": 2756,
      "enter": 2757,
      "depth": 2758,
      "nu": 2759,
      "glo": 2760,
      "hey": 2761,
      "ples": 2762,
      "slasher": 2763,
      "delight": 2764,
      "193": 2765,
      "biggest": 2766,
      "cell": 2767,
      "fiction": 2768,
      "fashion": 2769,
      "jew": 2770,
      "aside": 2771,
      "lets": 2772,
      "terri": 2773,
      "ensive": 2774,
      "control": 2775,
      "amusing": 2776,
      "bles": 2777,
      "wash": 2778,
      "counter": 2779,
      "recommended": 2780,
      "adventure": 2781,
      "nie": 2782,
      "solid": 2783,
      "test": 2784,
      "brut": 2785,
      "christmas": 2786,
      "continu": 2787,
      "lam": 2788,
      "answer": 2789,
      "awesome": 2790,
      "trip": 2791,
      "hall": 2792,
      "ises": 2793,
      "shoot": 2794,
      "producers": 2795,
      "garb": 2796,
      "ero": 2797,
      "mood": 2798,
      "manner": 2799,
      "shooting": 2800,
      "ican": 2801,
      "situations": 2802,
      "rot": 2803,
      "pop": 2804,
      "humour": 2805,
      "bomb": 2806,
      "club": 2807,
      "studio": 2808,
      "ura": 2809,
      "involving": 2810,
      "south": 2811,
      "minor": 2812,
      "spend": 2813,
      "100": 2814,
      "longer": 2815,
      "fake": 2816,
      "park": 2817,
      "smart": 2818,
      "fell": 2819,
      "govern": 2820,
      "basic": 2821,
      "normal": 2822,
      "presented": 2823,
      "changed": 2824,
      "taste": 2825,
      "ald": 2826,
      "edge": 2827,
      "finish": 2828,
      "depict": 2829,
      "born": 2830,
      "sher": 2831,
      "added": 2832,
      "avail": 2833,
      "decide": 2834,
      "date": 2835,
      "remo": 2836,
      "ultimately": 2837,
      "grade": 2838,
      "thanks": 2839,
      "pair": 2840,
      "purpose": 2841,
      "milit": 2842,
      "revenge": 2843,
      "proper": 2844,
      "likes": 2845,
      "ites": 2846,
      "jones": 2847,
      "sky": 2848,
      "carry": 2849,
      "aff": 2850,
      "anne": 2851,
      "chan": 2852,
      "gle": 2853,
      "chur": 2854,
      "ateur": 2855,
      "singing": 2856,
      "books": 2857,
      "questions": 2858,
      "wolf": 2859,
      "consist": 2860,
      "garbage": 2861,
      "iss": 2862,
      "allen": 2863,
      "techn": 2864,
      "anda": 2865,
      "rema": 2866,
      "impossible": 2867,
      "values": 2868,
      "impro": 2869,
      "journey": 2870,
      "barely": 2871,
      "juli": 2872,
      "mission": 2873,
      "ordinary": 2874,
      "inspired": 2875,
      "mill": 2876,
      "fool": 2877,
      "tun": 2878,
      "torture": 2879,
      "amateur": 2880,
      "grad": 2881,
      "fox": 2882,
      "leaving": 2883,
      "rect": 2884,
      "pportun": 2885,
      "respons": 2886,
      "aus": 2887,
      "ults": 2888,
      "weren": 2889,
      "showed": 2890,
      "runs": 2891,
      "heavy": 2892,
      "appearance": 2893,
      "tch": 2894,
      "grace": 2895,
      "turning": 2896,
      "million": 2897,
      "opportun": 2898,
      "tone": 2899,
      "depress": 2900,
      "genius": 2901,
      "andre": 2902,
      "alex": 2903,
      "charles": 2904,
      "complain": 2905,
      "shar": 2906,
      "starring": 2907,
      "surprisingly": 2908,
      "soul": 2909,
      "loud": 2910,
      "literally": 2911,
      "leng": 2912,
      "assu": 2913,
      "loy": 2914,
      "notice": 2915,
      "developed": 2916,
      "gag": 2917,
      "pract": 2918,
      "magic": 2919,
      "ener": 2920,
      "ests": 2921,
      "stan": 2922,
      "rog": 2923,
      "mistry": 2924,
      "considered": 2925,
      "legend": 2926,
      "somewhere": 2927,
      "smith": 2928,
      "iny": 2929,
      "disturbing": 2930,
      "wed": 2931,
      "redeem": 2932,
      "favour": 2933,
      "chemistry": 2934,
      "failed": 2935,
      "adult": 2936,
      "standard": 2937,
      "immediately": 2938,
      "arily": 2939,
      "pil": 2940,
      "army": 2941,
      "criminal": 2942,
      "random": 2943,
      "ization": 2944,
      "issues": 2945,
      "sof": 2946,
      "via": 2947,
      "bob": 2948,
      "soldiers": 2949,
      "bought": 2950,
      "costum": 2951,
      "honestly": 2952,
      "zo": 2953,
      "yed": 2954,
      "esh": 2955,
      "shadow": 2956,
      "lay": 2957,
      "reli": 2958,
      "nobody": 2959,
      "witch": 2960,
      "obsess": 2961,
      "sexy": 2962,
      "audiences": 2963,
      "reveal": 2964,
      "remark": 2965,
      "author": 2966,
      "innocent": 2967,
      "conclusion": 2968,
      "sitting": 2969,
      "ened": 2970,
      "core": 2971,
      "pictures": 2972,
      "exception": 2973,
      "minis": 2974,
      "ti": 2975,
      "phone": 2976,
      "chick": 2977,
      "pects": 2978,
      "anth": 2979,
      "load": 2980,
      "kes": 2981,
      "orts": 2982,
      "haun": 2983,
      "animated": 2984,
      "cks": 2985,
      "twists": 2986,
      "festival": 2987,
      "ku": 2988,
      "names": 2989,
      "aper": 2990,
      "boss": 2991,
      "thinks": 2992,
      "available": 2993,
      "ja": 2994,
      "ride": 2995,
      "award": 2996,
      "producer": 2997,
      "gory": 2998,
      "uc": 2999,
      "belief": 3000,
      "mysterious": 3001,
      "computer": 3002,
      "pun": 3003,
      "insul": 3004,
      "bell": 3005,
      "indust": 3006,
      "affair": 3007,
      "appeared": 3008,
      "motion": 3009,
      "impression": 3010,
      "government": 3011,
      "witness": 3012,
      "essent": 3013,
      "investig": 3014,
      "remain": 3015,
      "chap": 3016,
      "70": 3017,
      "gas": 3018,
      "nast": 3019,
      "succeed": 3020,
      "stunning": 3021,
      "tend": 3022,
      "moon": 3023,
      "neigh": 3024,
      "thur": 3025,
      "beha": 3026,
      "london": 3027,
      "ceived": 3028,
      "gree": 3029,
      "disco": 3030,
      "jeff": 3031,
      "curi": 3032,
      "changes": 3033,
      "naked": 3034,
      "***": 3035,
      "personally": 3036,
      "planet": 3037,
      "flow": 3038,
      "nowhere": 3039,
      "everybody": 3040,
      "fal": 3041,
      "stew": 3042,
      "appeal": 3043,
      "silent": 3044,
      "drive": 3045,
      "wis": 3046,
      "likely": 3047,
      "likable": 3048,
      "dom": 3049,
      "000": 3050,
      "beautifully": 3051,
      "jump": 3052,
      "bottom": 3053,
      "11": 3054,
      "ilt": 3055,
      "occur": 3056,
      "threat": 3057,
      "noir": 3058,
      "intrigu": 3059,
      "enced": 3060,
      "places": 3061,
      "mm": 3062,
      "intent": 3063,
      "military": 3064,
      "dev": 3065,
      "wel": 3066,
      "init": 3067,
      "bear": 3068,
      "termin": 3069,
      "confl": 3070,
      "program": 3071,
      "moral": 3072,
      "prop": 3073,
      "trust": 3074,
      "charlie": 3075,
      "wow": 3076,
      "walking": 3077,
      "climax": 3078,
      "remains": 3079,
      "generally": 3080,
      "suspect": 3081,
      "cinematic": 3082,
      "aspect": 3083,
      "terms": 3084,
      "destroy": 3085,
      "satisf": 3086,
      "views": 3087,
      "spoiler": 3088,
      "evid": 3089,
      "melo": 3090,
      "flashback": 3091,
      "hosp": 3092,
      "itor": 3093,
      "justice": 3094,
      "opera": 3095,
      "kin": 3096,
      "sion": 3097,
      "dor": 3098,
      "bled": 3099,
      "steve": 3100,
      "loose": 3101,
      "push": 3102,
      "photography": 3103,
      "cher": 3104,
      "mont": 3105,
      "comedies": 3106,
      "boyfriend": 3107,
      "pi": 3108,
      "scenery": 3109,
      "knowing": 3110,
      "stone": 3111,
      "lovely": 3112,
      "position": 3113,
      "historical": 3114,
      "charming": 3115,
      "professional": 3116,
      "intended": 3117,
      "indian": 3118,
      "rare": 3119,
      "mental": 3120,
      "watchable": 3121,
      "utterly": 3122,
      "13": 3123,
      "eth": 3124,
      "lau": 3125,
      "verse": 3126,
      "bits": 3127,
      "correct": 3128,
      "christian": 3129,
      "feat": 3130,
      "drink": 3131,
      "presence": 3132,
      "east": 3133,
      "terrific": 3134,
      "gry": 3135,
      "thrown": 3136,
      "adaptation": 3137,
      "sli": 3138,
      "crack": 3139,
      "giant": 3140,
      "harry": 3141,
      "loves": 3142,
      "managed": 3143,
      "plots": 3144,
      "building": 3145,
      "\".<": 3146,
      "mic": 3147,
      "influ": 3148,
      "onto": 3149,
      "seg": 3150,
      "emotions": 3151,
      "ified": 3152,
      "narrative": 3153,
      "18": 3154,
      "kno": 3155,
      "jean": 3156,
      "race": 3157,
      "disappointing": 3158,
      "escap": 3159,
      "news": 3160,
      "commer": 3161,
      "constantly": 3162,
      "riage": 3163,
      "laughable": 3164,
      "moun": 3165,
      "und": 3166,
      "zombies": 3167,
      "fli": 3168,
      "wide": 3169,
      "coll": 3170,
      "syste": 3171,
      "tony": 3172,
      "chin": 3173,
      "details": 3174,
      "offer": 3175,
      "dick": 3176,
      "vy": 3177,
      "thin": 3178,
      "vidu": 3179,
      "individu": 3180,
      "civil": 3181,
      "suppose": 3182,
      "eper": 3183,
      "radio": 3184,
      "detective": 3185,
      "brid": 3186,
      "ison": 3187,
      "viet": 3188,
      "ify": 3189,
      "protagon": 3190,
      "crash": 3191,
      "touching": 3192,
      "contem": 3193,
      "ires": 3194,
      "hurt": 3195,
      "unbelievable": 3196,
      "costumes": 3197,
      "suic": 3198,
      "exp": 3199,
      "charm": 3200,
      "slowly": 3201,
      "bruce": 3202,
      "40": 3203,
      "besides": 3204,
      "nick": 3205,
      "thes": 3206,
      "medio": 3207,
      "austral": 3208,
      "independ": 3209,
      "drawn": 3210,
      "painful": 3211,
      "filming": 3212,
      "intense": 3213,
      "stands": 3214,
      "fish": 3215,
      "mult": 3216,
      "els": 3217,
      "excuse": 3218,
      "hitchcock": 3219,
      "theless": 3220,
      "arts": 3221,
      "abor": 3222,
      "absur": 3223,
      "surround": 3224,
      "student": 3225,
      "holes": 3226,
      "summer": 3227,
      "lish": 3228,
      "grant": 3229,
      "aware": 3230,
      "central": 3231,
      "izes": 3232,
      "ledge": 3233,
      "contains": 3234,
      "bing": 3235,
      "isa": 3236,
      "speaking": 3237,
      "equally": 3238,
      "ston": 3239,
      "pra": 3240,
      "drunk": 3241,
      "feelings": 3242,
      "appropri": 3243,
      "beth": 3244,
      "bol": 3245,
      "titles": 3246,
      "hospital": 3247,
      "outstanding": 3248,
      "willing": 3249,
      "collection": 3250,
      "ades": 3251,
      "themes": 3252,
      "ured": 3253,
      "puts": 3254,
      "clean": 3255,
      "martin": 3256,
      "cum": 3257,
      "ots": 3258,
      "phy": 3259,
      "stock": 3260,
      "hoping": 3261,
      "eat": 3262,
      "mine": 3263,
      "content": 3264,
      "shak": 3265,
      "attractive": 3266,
      "univers": 3267,
      "12": 3268,
      "lived": 3269,
      "qual": 3270,
      "mare": 3271,
      "tour": 3272,
      "image": 3273,
      "forever": 3274,
      "magn": 3275,
      "billy": 3276,
      "fing": 3277,
      "oli": 3278,
      "inspir": 3279,
      "hook": 3280,
      "critics": 3281,
      "mistake": 3282,
      "nomin": 3283,
      "wy": 3284,
      "serial": 3285,
      "ene": 3286,
      "ander": 3287,
      "surely": 3288,
      "block": 3289,
      "placed": 3290,
      "ito": 3291,
      "discus": 3292,
      "difference": 3293,
      "mut": 3294,
      "arm": 3295,
      "faces": 3296,
      "expectations": 3297,
      "erson": 3298,
      "laughter": 3299,
      "double": 3300,
      "commercial": 3301,
      "domin": 3302,
      "aspects": 3303,
      "trick": 3304,
      "subst": 3305,
      "tired": 3306,
      "va": 3307,
      "fascinating": 3308,
      "sight": 3309,
      "chuck": 3310,
      "pull": 3311,
      "disappointment": 3312,
      "behavi": 3313,
      "ado": 3314,
      "topher": 3315,
      "queen": 3316,
      "church": 3317,
      "tro": 3318,
      "host": 3319,
      "gem": 3320,
      "woods": 3321,
      "held": 3322,
      "mainly": 3323,
      "lighting": 3324,
      "virt": 3325,
      "bra": 3326,
      "fellow": 3327,
      "apo": 3328,
      "breath": 3329,
      "graphic": 3330,
      "andon": 3331,
      "creative": 3332,
      "stewart": 3333,
      "lover": 3334,
      "devil": 3335,
      "thir": 3336,
      "stein": 3337,
      "jects": 3338,
      "trag": 3339,
      "dreams": 3340,
      "comfort": 3341,
      "disgust": 3342,
      "matic": 3343,
      "origin": 3344,
      "opportunity": 3345,
      "ahead": 3346,
      "absurd": 3347,
      "naz": 3348,
      "location": 3349,
      "mild": 3350,
      "laughed": 3351,
      "eight": 3352,
      "resem": 3353,
      "seven": 3354,
      "addition": 3355,
      "oughly": 3356,
      "gain": 3357,
      "christopher": 3358,
      "batman": 3359,
      "fif": 3360,
      "decis": 3361,
      "jon": 3362,
      "ya": 3363,
      "ano": 3364,
      "station": 3365,
      "los": 3366,
      "robin": 3367,
      "porn": 3368,
      "dread": 3369,
      "sea": 3370,
      "students": 3371,
      "folks": 3372,
      "priv": 3373,
      "flicks": 3374,
      "impressed": 3375,
      "confusing": 3376,
      "accurate": 3377,
      "finding": 3378,
      "happening": 3379,
      "compelling": 3380,
      "?!": 3381,
      "agent": 3382,
      "horse": 3383,
      "hat": 3384,
      "dig": 3385,
      "confused": 3386,
      "fright": 3387,
      "judge": 3388,
      "drugs": 3389,
      "lights": 3390,
      "kr": 3391,
      "steven": 3392,
      "provid": 3393,
      "span": 3394,
      "safe": 3395,
      "include": 3396,
      "process": 3397,
      "marriage": 3398,
      "gorge": 3399,
      ".....": 3400,
      "ante": 3401,
      "pup": 3402,
      "itude": 3403,
      "cele": 3404,
      "paid": 3405,
      "fied": 3406,
      "spectac": 3407,
      "birth": 3408,
      "bum": 3409,
      "games": 3410,
      "mex": 3411,
      "twice": 3412,
      "soft": 3413,
      "card": 3414,
      "resc": 3415,
      "asts": 3416,
      "distr": 3417,
      "blind": 3418,
      "information": 3419,
      "americans": 3420,
      "breaking": 3421,
      "machine": 3422,
      "ugly": 3423,
      "nel": 3424,
      "irrit": 3425,
      "argu": 3426,
      "captain": 3427,
      "boat": 3428,
      "putting": 3429,
      "helps": 3430,
      "lord": 3431,
      "onna": 3432,
      "soldier": 3433,
      "ws": 3434,
      "tran": 3435,
      "traged": 3436,
      "weap": 3437,
      "dub": 3438,
      "falling": 3439,
      "vert": 3440,
      "norm": 3441,
      "occasion": 3442,
      "rout": 3443,
      "kelly": 3444,
      "intention": 3445,
      "nightmare": 3446,
      "shakespe": 3447,
      "vs": 3448,
      "ups": 3449,
      "relationships": 3450,
      "jes": 3451,
      "igno": 3452,
      "compan": 3453,
      "supposedly": 3454,
      "lying": 3455,
      "cops": 3456,
      "actresses": 3457,
      "ands": 3458,
      "russian": 3459,
      "funniest": 3460,
      "arthur": 3461,
      "quie": 3462,
      "spec": 3463,
      "trailer": 3464,
      "dated": 3465,
      "seemingly": 3466,
      "share": 3467,
      "multi": 3468,
      "forgotten": 3469,
      "lacks": 3470,
      "chas": 3471,
      "prote": 3472,
      "leader": 3473,
      "freak": 3474,
      "mob": 3475,
      "damn": 3476,
      "canad": 3477,
      "emplo": 3478,
      "adds": 3479,
      "industry": 3480,
      "pin": 3481,
      "loving": 3482,
      "victims": 3483,
      "mouth": 3484,
      "slap": 3485,
      "system": 3486,
      "creature": 3487,
      "neighbor": 3488,
      "brown": 3489,
      "amed": 3490,
      "negative": 3491,
      "hide": 3492,
      "bright": 3493,
      "warm": 3494,
      "delivers": 3495,
      "remote": 3496,
      "nasty": 3497,
      "ech": 3498,
      "vides": 3499,
      "adults": 3500,
      "gorgeous": 3501,
      "superi": 3502,
      "jackson": 3503,
      "flaws": 3504,
      "suicide": 3505,
      "offers": 3506,
      "latter": 3507,
      "bour": 3508,
      "estab": 3509,
      "disaster": 3510,
      "therefore": 3511,
      "artist": 3512,
      "anymore": 3513,
      "rend": 3514,
      "ties": 3515,
      "progress": 3516,
      "wondering": 3517,
      "explan": 3518,
      "frust": 3519,
      "element": 3520,
      "hasn": 3521,
      "lessly": 3522,
      "jan": 3523,
      "lif": 3524,
      "length": 3525,
      "gal": 3526,
      "uk": 3527,
      "grat": 3528,
      "possess": 3529,
      "impact": 3530,
      "connection": 3531,
      "mediocre": 3532,
      "fection": 3533,
      "stuck": 3534,
      "cgi": 3535,
      "gin": 3536,
      "prefer": 3537,
      "----": 3538,
      "explained": 3539,
      "pleasant": 3540,
      "dun": 3541,
      "states": 3542,
      "heads": 3543,
      "followed": 3544,
      "listen": 3545,
      "reminded": 3546,
      "scientist": 3547,
      "rush": 3548,
      "zen": 3549,
      "animals": 3550,
      "hab": 3551,
      "nes": 3552,
      "numbers": 3553,
      "hotel": 3554,
      "slo": 3555,
      "becoming": 3556,
      "area": 3557,
      "serv": 3558,
      "window": 3559,
      "allowed": 3560,
      "rented": 3561,
      "shouldn": 3562,
      "shocking": 3563,
      "itions": 3564,
      "merely": 3565,
      "iev": 3566,
      "deserved": 3567,
      "shakespeare": 3568,
      "ior": 3569,
      "imagination": 3570,
      "teacher": 3571,
      "celebr": 3572,
      "chill": 3573,
      "calls": 3574,
      "skin": 3575,
      "stren": 3576,
      "syn": 3577,
      "dirty": 3578,
      "jason": 3579,
      "provides": 3580,
      "struct": 3581,
      "drop": 3582,
      "hack": 3583,
      "thats": 3584,
      "epic": 3585,
      "pleasure": 3586,
      "tragic": 3587,
      "kidn": 3588,
      "cused": 3589,
      "itional": 3590,
      "depart": 3591,
      "murders": 3592,
      "rage": 3593,
      "standards": 3594,
      "zero": 3595,
      "stat": 3596,
      "warning": 3597,
      "rose": 3598,
      "forgettable": 3599,
      "henry": 3600,
      "punch": 3601,
      "uts": 3602,
      "ively": 3603,
      "personality": 3604,
      "picked": 3605,
      "60": 3606,
      "comparis": 3607,
      "uous": 3608,
      "wearing": 3609,
      "seconds": 3610,
      "aries": 3611,
      "achie": 3612,
      "kevin": 3613,
      "bland": 3614,
      "north": 3615,
      "angry": 3616,
      "aly": 3617,
      "oppos": 3618,
      "hs": 3619,
      "acade": 3620,
      "fill": 3621,
      "helped": 3622,
      "rape": 3623,
      "wooden": 3624,
      "tes": 3625,
      "returns": 3626,
      "adam": 3627,
      "commentary": 3628,
      "shop": 3629,
      "formula": 3630,
      "tragedy": 3631,
      "sour": 3632,
      "soever": 3633,
      "convers": 3634,
      "realism": 3635,
      "religious": 3636,
      "wars": 3637,
      "streng": 3638,
      "auto": 3639,
      "ryan": 3640,
      "childhood": 3641,
      "flying": 3642,
      "afraid": 3643,
      "winning": 3644,
      "theatre": 3645,
      "bank": 3646,
      "asks": 3647,
      "moved": 3648,
      "soap": 3649,
      "artistic": 3650,
      "whatsoever": 3651,
      "ister": 3652,
      "lose": 3653,
      "wee": 3654,
      "convent": 3655,
      "thomas": 3656,
      ".,": 3657,
      "pit": 3658,
      "thoroughly": 3659,
      "ai": 3660,
      "cars": 3661,
      "vac": 3662,
      "ww": 3663,
      "accor": 3664,
      "rul": 3665,
      "proves": 3666,
      "food": 3667,
      "buff": 3668,
      "achieve": 3669,
      "asked": 3670,
      "loss": 3671,
      "speed": 3672,
      "heroes": 3673,
      "boo": 3674,
      "teenage": 3675,
      "magnific": 3676,
      "remarkable": 3677,
      "/>-": 3678,
      "bio": 3679,
      "page": 3680,
      "issue": 3681,
      "superior": 3682,
      "tight": 3683,
      "bath": 3684,
      "cup": 3685,
      "fare": 3686,
      "agger": 3687,
      "brok": 3688,
      "bow": 3689,
      "conflict": 3690,
      "fights": 3691,
      "tex": 3692,
      "animal": 3693,
      "understanding": 3694,
      "nal": 3695,
      "realized": 3696,
      "mountain": 3697,
      "dying": 3698,
      "cali": 3699,
      "oud": 3700,
      "separ": 3701,
      "unknown": 3702,
      "clothes": 3703,
      "heaven": 3704,
      "pot": 3705,
      "danny": 3706,
      "continue": 3707,
      "physical": 3708,
      "jac": 3709,
      "burn": 3710,
      "apartment": 3711,
      "gs": 3712,
      "gene": 3713,
      "barbar": 3714,
      "martial": 3715,
      "noticed": 3716,
      "finished": 3717,
      "twenty": 3718,
      "responsible": 3719,
      "dred": 3720,
      "repeated": 3721,
      "jerry": 3722,
      "cab": 3723,
      "dum": 3724,
      "hay": 3725,
      "fold": 3726,
      "sucks": 3727,
      "80s": 3728,
      "jr": 3729,
      "unexpected": 3730,
      "cow": 3731,
      "bloody": 3732,
      "memory": 3733,
      "aa": 3734,
      "cable": 3735,
      "youth": 3736,
      "began": 3737,
      "fits": 3738,
      "player": 3739,
      "wanting": 3740,
      "gling": 3741,
      "capt": 3742,
      "favourite": 3743,
      "chinese": 3744,
      "lone": 3745,
      "relative": 3746,
      "presents": 3747,
      "describe": 3748,
      "educ": 3749,
      "aine": 3750,
      "hidden": 3751,
      "energy": 3752,
      ".'": 3753,
      "rarely": 3754,
      "ency": 3755,
      "alan": 3756,
      "brand": 3757,
      "grave": 3758,
      "atter": 3759,
      "cook": 3760,
      "anybody": 3761,
      "awk": 3762,
      "holds": 3763,
      "sac": 3764,
      "provide": 3765,
      "struggle": 3766,
      "ape": 3767,
      "johnny": 3768,
      "introduced": 3769,
      "independent": 3770,
      "illa": 3771,
      "conve": 3772,
      "ella": 3773,
      "brook": 3774,
      "transform": 3775,
      "sympath": 3776,
      "golden": 3777,
      "extr": 3778,
      "thous": 3779,
      "motiv": 3780,
      "president": 3781,
      "yer": 3782,
      "manage": 3783,
      "anywhere": 3784,
      "perform": 3785,
      "surprising": 3786,
      "agers": 3787,
      "intelligence": 3788,
      "brutal": 3789,
      "intriguing": 3790,
      "aire": 3791,
      "mate": 3792,
      "prepare": 3793,
      "cris": 3794,
      "redeeming": 3795,
      "iest": 3796,
      "brad": 3797,
      "accom": 3798,
      "river": 3799,
      "tears": 3800,
      "limited": 3801,
      "dangerous": 3802,
      "gary": 3803,
      "frame": 3804,
      "sport": 3805,
      "ski": 3806,
      ")<": 3807,
      "ils": 3808,
      "williams": 3809,
      "nan": 3810,
      "itty": 3811,
      "knowledge": 3812,
      "angle": 3813,
      "desert": 3814,
      "dut": 3815,
      "jam": 3816,
      "powers": 3817,
      "rupt": 3818,
      "buster": 3819,
      "moore": 3820,
      "flesh": 3821,
      "cruel": 3822,
      "snow": 3823,
      "resol": 3824,
      "brian": 3825,
      "iron": 3826,
      "bag": 3827,
      "ppy": 3828,
      "techni": 3829,
      "cel": 3830,
      "text": 3831,
      "pers": 3832,
      "ifer": 3833,
      "tape": 3834,
      "comedic": 3835,
      "clichés": 3836,
      "ining": 3837,
      "research": 3838,
      "lion": 3839,
      "filmmaker": 3840,
      "stephen": 3841,
      "cate": 3842,
      "assist": 3843,
      "capable": 3844,
      "buddy": 3845,
      "current": 3846,
      "creating": 3847,
      "techno": 3848,
      "oted": 3849,
      "mu": 3850,
      "reck": 3851,
      "wonderfully": 3852,
      "mike": 3853,
      "hundred": 3854,
      "record": 3855,
      "scious": 3856,
      "deserve": 3857,
      "bound": 3858,
      "gro": 3859,
      "belong": 3860,
      "deeply": 3861,
      "glass": 3862,
      "bbish": 3863,
      "stink": 3864,
      "sole": 3865,
      "blame": 3866,
      "corn": 3867,
      "harris": 3868,
      "erous": 3869,
      "uncle": 3870,
      "strain": 3871,
      "ousy": 3872,
      "shir": 3873,
      "experiment": 3874,
      "nold": 3875,
      "aps": 3876,
      "cuts": 3877,
      "engaging": 3878,
      "cere": 3879,
      "ilo": 3880,
      "peace": 3881,
      "price": 3882,
      "reminds": 3883,
      "awkward": 3884,
      "ote": 3885,
      "lind": 3886,
      "tay": 3887,
      "aton": 3888,
      "howard": 3889,
      "azz": 3890,
      "nicely": 3891,
      "leon": 3892,
      "blon": 3893,
      "jum": 3894,
      "partner": 3895,
      "horri": 3896,
      "monsters": 3897,
      "singer": 3898,
      "skip": 3899,
      "bian": 3900,
      "paper": 3901,
      "somebody": 3902,
      "friendship": 3903,
      "paced": 3904,
      "explanation": 3905,
      "aud": 3906,
      "priest": 3907,
      "wat": 3908,
      "eddie": 3909,
      "unusual": 3910,
      "mann": 3911,
      "lucky": 3912,
      "revolution": 3913,
      "70s": 3914,
      "incident": 3915,
      "shel": 3916,
      "philo": 3917,
      "broken": 3918,
      "asure": 3919,
      "whil": 3920,
      "interpret": 3921,
      "includes": 3922,
      "apparent": 3923,
      "appropriate": 3924,
      "hic": 3925,
      "hated": 3926,
      "uel": 3927,
      "lovers": 3928,
      "insane": 3929,
      "spective": 3930,
      "vhs": 3931,
      "below": 3932,
      "assin": 3933,
      "smile": 3934,
      "driving": 3935,
      "pacing": 3936,
      "humanity": 3937,
      "steal": 3938,
      "officer": 3939,
      "lynch": 3940,
      "stor": 3941,
      "ption": 3942,
      "gags": 3943,
      "gam": 3944,
      "nia": 3945,
      "constant": 3946,
      "captured": 3947,
      "dimens": 3948,
      "mum": 3949,
      "pir": 3950,
      "scared": 3951,
      "served": 3952,
      "foreign": 3953,
      "whilst": 3954,
      "complic": 3955,
      "fle": 3956,
      "tu": 3957,
      "stream": 3958,
      "memories": 3959,
      "dressed": 3960,
      "community": 3961,
      "discovered": 3962,
      "nur": 3963,
      "generation": 3964,
      "academy": 3965,
      "ette": 3966,
      "daniel": 3967,
      "signific": 3968,
      "references": 3969,
      "repor": 3970,
      "cha": 3971,
      "unnecessary": 3972,
      "freed": 3973,
      "desperate": 3974,
      "opposite": 3975,
      "represent": 3976,
      "owner": 3977,
      "courage": 3978,
      "humans": 3979,
      "ators": 3980,
      "locations": 3981,
      "pilot": 3982,
      "cash": 3983,
      "fate": 3984,
      "oz": 3985,
      "forts": 3986,
      "viewed": 3987,
      "knock": 3988,
      "months": 3989,
      "nonsense": 3990,
      "debut": 3991,
      "contrast": 3992,
      "cise": 3993,
      "forces": 3994,
      "learned": 3995,
      "intellect": 3996,
      "naturally": 3997,
      "floor": 3998,
      "technical": 3999,
      "entious": 4000,
      "sympathetic": 4001,
      "rie": 4002,
      "saur": 4003,
      "vote": 4004,
      "guns": 4005,
      ":<": 4006,
      "vul": 4007,
      "morning": 4008,
      "treated": 4009,
      "normally": 4010,
      "chain": 4011,
      "castle": 4012,
      "starting": 4013,
      "growing": 4014,
      "wing": 4015,
      "wanna": 4016,
      "saving": 4017,
      "taylor": 4018,
      "players": 4019,
      "gentle": 4020,
      "proceed": 4021,
      "mini": 4022,
      "visit": 4023,
      "heroine": 4024,
      "herent": 4025,
      "weight": 4026,
      "prove": 4027,
      "ivity": 4028,
      "nis": 4029,
      "icate": 4030,
      "lacking": 4031,
      "according": 4032,
      "atro": 4033,
      "chief": 4034,
      "ider": 4035,
      "pretentious": 4036,
      "symbol": 4037,
      "mixed": 4038,
      "cant": 4039,
      "jenn": 4040,
      "edited": 4041,
      "keeping": 4042,
      "rubbish": 4043,
      "accompl": 4044,
      "hart": 4045,
      "service": 4046,
      "dry": 4047,
      "invent": 4048,
      "eating": 4049,
      "beach": 4050,
      "object": 4051,
      "davis": 4052,
      "iled": 4053,
      "lewis": 4054,
      "frequ": 4055,
      "magnificent": 4056,
      "eric": 4057,
      "conscious": 4058,
      "serve": 4059,
      "mrs": 4060,
      "behavior": 4061,
      "cis": 4062,
      "goof": 4063,
      "grapher": 4064,
      "media": 4065,
      "survive": 4066,
      "cass": 4067,
      "heal": 4068,
      "minim": 4069,
      "incre": 4070,
      "spoof": 4071,
      "england": 4072,
      "hits": 4073,
      "ena": 4074,
      "hadn": 4075,
      "mature": 4076,
      "urban": 4077,
      "originally": 4078,
      "grown": 4079,
      "junk": 4080,
      "organ": 4081,
      "iling": 4082,
      "seat": 4083,
      "affect": 4084,
      "itous": 4085,
      "comparison": 4086,
      "apes": 4087,
      "thered": 4088,
      "fault": 4089,
      "bigger": 4090,
      "ville": 4091,
      "chair": 4092,
      "wayne": 4093,
      "rise": 4094,
      "wear": 4095,
      "constru": 4096,
      "jose": 4097,
      "nation": 4098,
      "associ": 4099,
      "vehic": 4100,
      "unders": 4101,
      "sco": 4102,
      "plaus": 4103,
      "sentiment": 4104,
      "witty": 4105,
      "princi": 4106,
      "travel": 4107,
      "sean": 4108,
      "thern": 4109,
      "lake": 4110,
      "occasionally": 4111,
      "glor": 4112,
      "hunter": 4113,
      "philoso": 4114,
      "veter": 4115,
      "pless": 4116,
      "grab": 4117,
      "desire": 4118,
      "efforts": 4119,
      "murdered": 4120,
      "dealing": 4121,
      "explic": 4122,
      "donald": 4123,
      "parody": 4124,
      "craft": 4125,
      "candy": 4126,
      "atory": 4127,
      "villains": 4128,
      "empty": 4129,
      "nine": 4130,
      "deals": 4131,
      "bodies": 4132,
      "included": 4133,
      "crappy": 4134,
      "european": 4135,
      "jennifer": 4136,
      "jay": 4137,
      "lust": 4138,
      "joan": 4139,
      "competent": 4140,
      "satisfying": 4141,
      "protagonist": 4142,
      "spanish": 4143,
      "instance": 4144,
      "wound": 4145,
      "union": 4146,
      "rober": 4147,
      "finest": 4148,
      "regular": 4149,
      "quiet": 4150,
      "lum": 4151,
      "icious": 4152,
      "corpor": 4153,
      "sant": 4154,
      "numerous": 4155,
      "sie": 4156,
      "mode": 4157,
      "charis": 4158,
      "passed": 4159,
      "satur": 4160,
      "circum": 4161,
      "kins": 4162,
      "encounter": 4163,
      "revealed": 4164,
      "rant": 4165,
      "send": 4166,
      "reaction": 4167,
      "seless": 4168,
      "ipul": 4169,
      "humorous": 4170,
      "advice": 4171,
      "quir": 4172,
      "preh": 4173,
      "whenever": 4174,
      "speech": 4175,
      "barry": 4176,
      "private": 4177,
      "kinda": 4178,
      "court": 4179,
      "hearted": 4180,
      "trek": 4181,
      "bak": 4182,
      "tz": 4183,
      "rence": 4184,
      "chore": 4185,
      "essentially": 4186,
      "format": 4187,
      "deb": 4188,
      "promise": 4189,
      "target": 4190,
      "concerned": 4191,
      "stree": 4192,
      "related": 4193,
      "bringing": 4194,
      "louis": 4195,
      "dimensional": 4196,
      "bid": 4197,
      "fro": 4198,
      "anton": 4199,
      "sir": 4200,
      "envir": 4201,
      "section": 4202,
      ".\"<": 4203,
      "village": 4204,
      "crowd": 4205,
      "blonde": 4206,
      "ez": 4207,
      "erotic": 4208,
      "itz": 4209,
      "feet": 4210,
      "context": 4211,
      "frankly": 4212,
      "fame": 4213,
      "united": 4214,
      "finale": 4215,
      "insight": 4216,
      "hopes": 4217,
      "anthony": 4218,
      "jung": 4219,
      "mitch": 4220,
      "marvel": 4221,
      "buck": 4222,
      "glas": 4223,
      "terribly": 4224,
      "irritating": 4225,
      "streets": 4226,
      "wrest": 4227,
      "manipul": 4228,
      "international": 4229,
      "saved": 4230,
      "sche": 4231,
      "center": 4232,
      "relate": 4233,
      "pulled": 4234,
      "results": 4235,
      "psychological": 4236,
      "stereotypes": 4237,
      "sharp": 4238,
      "france": 4239,
      "ultimate": 4240,
      "featuring": 4241,
      "gard": 4242,
      "nich": 4243,
      "toward": 4244,
      "abandon": 4245,
      "alleng": 4246,
      "higher": 4247,
      "teenagers": 4248,
      "meeting": 4249,
      "texas": 4250,
      "ctr": 4251,
      "nar": 4252,
      "asian": 4253,
      "liber": 4254,
      "scr": 4255,
      "print": 4256,
      "meanwhile": 4257,
      "spectacular": 4258,
      "gross": 4259,
      "zan": 4260,
      "ario": 4261,
      "plant": 4262,
      "remembered": 4263,
      "study": 4264,
      "contribut": 4265,
      "haw": 4266,
      "environ": 4267,
      "__": 4268,
      "sheer": 4269,
      "tribut": 4270,
      "hip": 4271,
      "rical": 4272,
      "skills": 4273,
      "received": 4274,
      "weal": 4275,
      "sett": 4276,
      "bbing": 4277,
      "hallo": 4278,
      "promising": 4279,
      "statement": 4280,
      "individual": 4281,
      "market": 4282,
      "football": 4283,
      "miles": 4284,
      "african": 4285,
      "ington": 4286,
      "marry": 4287,
      "talents": 4288,
      "miser": 4289,
      "aliens": 4290,
      "freedom": 4291,
      ");": 4292,
      "gig": 4293,
      "hes": 4294,
      "range": 4295,
      "altern": 4296,
      "heck": 4297,
      "rival": 4298,
      "sucked": 4299,
      "genuinely": 4300,
      "contempor": 4301,
      "circumst": 4302,
      "nin": 4303,
      "lied": 4304,
      "unfunny": 4305,
      "ques": 4306,
      "guard": 4307,
      "gangster": 4308,
      "rough": 4309,
      "tho": 4310,
      "ambit": 4311,
      "cies": 4312,
      "experienced": 4313,
      "admir": 4314,
      "25": 4315,
      "ec": 4316,
      "ato": 4317,
      "jimmy": 4318,
      "16": 4319,
      "site": 4320,
      "determin": 4321,
      "covered": 4322,
      "challeng": 4323,
      "cia": 4324,
      "matt": 4325,
      "satire": 4326,
      "sisters": 4327,
      "levels": 4328,
      "greg": 4329,
      "rings": 4330,
      "inder": 4331,
      "iety": 4332,
      "attitude": 4333,
      "morgan": 4334,
      "julie": 4335,
      "dino": 4336,
      "screaming": 4337,
      "classics": 4338,
      "virgin": 4339,
      "visuals": 4340,
      "gil": 4341,
      "udes": 4342,
      "failure": 4343,
      "ladies": 4344,
      "rolling": 4345,
      "comfortable": 4346,
      "halloween": 4347,
      "pity": 4348,
      "ira": 4349,
      "logic": 4350,
      "decision": 4351,
      "alice": 4352,
      "unfold": 4353,
      "marks": 4354,
      "lesson": 4355,
      "famil": 4356,
      "breaks": 4357,
      "existence": 4358,
      "dreadful": 4359,
      "gif": 4360,
      "unable": 4361,
      "corny": 4362,
      "cameo": 4363,
      "continues": 4364,
      "decade": 4365,
      "wedding": 4366,
      "hunt": 4367,
      "rifying": 4368,
      "???": 4369,
      "sheriff": 4370,
      "14": 4371,
      "native": 4372,
      "ays": 4373,
      "unrealistic": 4374,
      "shallow": 4375,
      "relief": 4376,
      "evidence": 4377,
      "tack": 4378,
      "recall": 4379,
      "evol": 4380,
      "spin": 4381,
      "creates": 4382,
      "creatures": 4383,
      "curious": 4384,
      "strength": 4385,
      "jess": 4386,
      "assassin": 4387,
      "ishing": 4388,
      "opens": 4389,
      "built": 4390,
      "clim": 4391,
      "reviewers": 4392,
      "described": 4393,
      "australian": 4394,
      "flashbacks": 4395,
      "cand": 4396,
      "overly": 4397,
      "ender": 4398,
      "function": 4399,
      "surreal": 4400,
      "grew": 4401,
      "identity": 4402,
      "truck": 4403,
      "emer": 4404,
      "vampires": 4405,
      "kim": 4406,
      "tiny": 4407,
      "ico": 4408,
      "product": 4409,
      "sides": 4410,
      "douglas": 4411,
      "allows": 4412,
      "roberts": 4413,
      "wick": 4414,
      "seag": 4415,
      "keaton": 4416,
      "blown": 4417,
      "switch": 4418,
      "demonstr": 4419,
      "contrived": 4420,
      "jesus": 4421,
      "barbara": 4422,
      "raw": 4423,
      "enemy": 4424,
      "cit": 4425,
      "perspective": 4426,
      "guil": 4427,
      "blah": 4428,
      "sake": 4429,
      "command": 4430,
      "appealing": 4431,
      "traditional": 4432,
      "inte": 4433,
      "ruth": 4434,
      "driven": 4435,
      "discovers": 4436,
      "icts": 4437,
      "hole": 4438,
      "---": 4439,
      "monkey": 4440,
      "teenager": 4441,
      "hitler": 4442,
      "abr": 4443,
      "model": 4444,
      "elle": 4445,
      "transl": 4446,
      "provided": 4447,
      "kong": 4448,
      "ende": 4449,
      "colum": 4450,
      "rous": 4451,
      "vance": 4452,
      "anci": 4453,
      "reed": 4454,
      "choose": 4455,
      "driver": 4456,
      "mend": 4457,
      "stum": 4458,
      "authen": 4459,
      "sports": 4460,
      "lesbian": 4461,
      "visually": 4462,
      "tedious": 4463,
      "cares": 4464,
      "suffering": 4465,
      "dubbed": 4466,
      "fab": 4467,
      "ping": 4468,
      "ara": 4469,
      "strict": 4470,
      "rental": 4471,
      "walks": 4472,
      "bbc": 4473,
      "sedu": 4474,
      "delightful": 4475,
      "propag": 4476,
      "rescue": 4477,
      "brilliantly": 4478,
      "dogs": 4479,
      "xious": 4480,
      "........": 4481,
      "involves": 4482,
      "lane": 4483,
      "endless": 4484,
      "stretch": 4485,
      "gonna": 4486,
      "dol": 4487,
      "trade": 4488,
      "theaters": 4489,
      "tan": 4490,
      "refresh": 4491,
      "chi": 4492,
      "colour": 4493,
      "handed": 4494,
      "victori": 4495,
      "rules": 4496,
      "stated": 4497,
      "pets": 4498,
      "underrated": 4499,
      "delivered": 4500,
      "combination": 4501,
      "vok": 4502,
      "asking": 4503,
      "advert": 4504,
      "mask": 4505,
      "electr": 4506,
      "faced": 4507,
      "document": 4508,
      "prince": 4509,
      "eer": 4510,
      "rep": 4511,
      "alle": 4512,
      "brave": 4513,
      "ulous": 4514,
      "proved": 4515,
      "handsome": 4516,
      "emotionally": 4517,
      "!).": 4518,
      "lab": 4519,
      "strip": 4520,
      "scale": 4521,
      "gordon": 4522,
      "executed": 4523,
      "families": 4524,
      "fict": 4525,
      "glim": 4526,
      "scenario": 4527,
      "reviewer": 4528,
      "graphed": 4529,
      "ease": 4530,
      "loses": 4531,
      "liz": 4532,
      "aught": 4533,
      "pregn": 4534,
      "angles": 4535,
      "corrupt": 4536,
      "larry": 4537,
      "chaplin": 4538,
      "dish": 4539,
      "sons": 4540,
      "achiev": 4541,
      "talks": 4542,
      "visible": 4543,
      "expression": 4544,
      "gratu": 4545,
      "cage": 4546,
      "evening": 4547,
      "amateurish": 4548,
      "seagal": 4549,
      "ibility": 4550,
      "link": 4551,
      "forth": 4552,
      "shut": 4553,
      "cious": 4554,
      "regret": 4555,
      "facts": 4556,
      "assume": 4557,
      "disgusting": 4558,
      "bun": 4559,
      "ama": 4560,
      "osex": 4561,
      "eliza": 4562,
      "haunting": 4563,
      "fed": 4564,
      "hil": 4565,
      "iac": 4566,
      "offensive": 4567,
      "commit": 4568,
      "porno": 4569,
      "cil": 4570,
      "lem": 4571,
      "roman": 4572,
      "apping": 4573,
      "bog": 4574,
      "aka": 4575,
      "naive": 4576,
      "distin": 4577,
      "costs": 4578,
      "network": 4579,
      "authentic": 4580,
      "tood": 4581,
      "teens": 4582,
      "treatment": 4583,
      "controvers": 4584,
      "universal": 4585,
      "osexual": 4586,
      "stit": 4587,
      "chant": 4588,
      "robot": 4589,
      "angers": 4590,
      "produce": 4591,
      "harsh": 4592,
      "believes": 4593,
      "claims": 4594,
      "dollars": 4595,
      "religion": 4596,
      "cath": 4597,
      "ey": 4598,
      "ication": 4599,
      "inept": 4600,
      "turkey": 4601,
      "silver": 4602,
      "patrick": 4603,
      "refle": 4604,
      "mirror": 4605,
      "ancient": 4606,
      "17": 4607,
      "cket": 4608,
      "kate": 4609,
      "maint": 4610,
      "sitcom": 4611,
      "majority": 4612,
      "choreo": 4613,
      "gratuitous": 4614,
      "skill": 4615,
      "supp": 4616,
      "grim": 4617,
      "nevertheless": 4618,
      "relevant": 4619,
      "hopefully": 4620,
      "rat": 4621,
      "neck": 4622,
      "code": 4623,
      "proud": 4624,
      "steals": 4625,
      "exploitation": 4626,
      "descript": 4627,
      "sequels": 4628,
      "understood": 4629,
      "pitch": 4630,
      "till": 4631,
      "shall": 4632,
      "guar": 4633,
      "serves": 4634,
      "thoughts": 4635,
      "poses": 4636,
      "nominated": 4637,
      "vable": 4638,
      "coherent": 4639,
      "ignor": 4640,
      "spell": 4641,
      "versions": 4642,
      "germany": 4643,
      "portrays": 4644,
      "shocked": 4645,
      "citiz": 4646,
      "enthus": 4647,
      "icated": 4648,
      "provok": 4649,
      "cutting": 4650,
      "caused": 4651,
      "winner": 4652,
      "strongly": 4653,
      "theatrical": 4654,
      "jar": 4655,
      "revel": 4656,
      "account": 4657,
      "compreh": 4658,
      "poster": 4659,
      "prior": 4660,
      "suffer": 4661,
      "francis": 4662,
      "embarrassing": 4663,
      "horribly": 4664,
      "enthusi": 4665,
      "lousy": 4666,
      "nest": 4667,
      "albert": 4668,
      "secur": 4669,
      "preach": 4670,
      "surface": 4671,
      "excite": 4672,
      "excited": 4673,
      "bone": 4674,
      "factor": 4675,
      "usive": 4676,
      "evit": 4677,
      "killers": 4678,
      "jackie": 4679,
      "dust": 4680,
      "ration": 4681,
      "meth": 4682,
      "chosen": 4683,
      "fix": 4684,
      "technology": 4685,
      "doom": 4686,
      "liners": 4687,
      "walked": 4688,
      "contemporary": 4689,
      "reput": 4690,
      "irish": 4691,
      "awards": 4692,
      "werewolf": 4693,
      "letter": 4694,
      "twisted": 4695,
      "obsessed": 4696,
      "rab": 4697,
      "nichol": 4698,
      "bach": 4699,
      "figh": 4700,
      "vest": 4701,
      "anderson": 4702,
      "hearing": 4703,
      "rix": 4704,
      "clue": 4705,
      "routine": 4706,
      "weeks": 4707,
      "extras": 4708,
      "circumstances": 4709,
      "nn": 4710,
      "thro": 4711,
      "beast": 4712,
      "entertained": 4713,
      "involve": 4714,
      "adventures": 4715,
      "matters": 4716,
      "voices": 4717,
      "subtitles": 4718,
      "darkness": 4719,
      "inevit": 4720,
      "destru": 4721,
      "necessarily": 4722,
      "cous": 4723,
      "sword": 4724,
      "arms": 4725,
      "conce": 4726,
      "saturday": 4727,
      "fornia": 4728,
      "highlight": 4729,
      "hyster": 4730,
      "critical": 4731,
      "figured": 4732,
      "propaganda": 4733,
      "tie": 4734,
      "quar": 4735,
      "simon": 4736,
      "stopped": 4737,
      "voc": 4738,
      "holding": 4739,
      "largely": 4740,
      "source": 4741,
      "joseph": 4742,
      "hoff": 4743,
      "atra": 4744,
      "losing": 4745,
      "cartoons": 4746,
      "slapstick": 4747,
      "vehicle": 4748,
      "gate": 4749,
      "existent": 4750,
      "insult": 4751,
      "kir": 4752,
      "von": 4753,
      "wins": 4754,
      "borrow": 4755,
      "kore": 4756,
      "render": 4757,
      "portraying": 4758,
      "painfully": 4759,
      "honor": 4760,
      "intellectual": 4761,
      "jail": 4762,
      "ole": 4763,
      "tast": 4764,
      "coach": 4765,
      "prostit": 4766,
      "bitter": 4767,
      "dennis": 4768,
      "jungle": 4769,
      "gles": 4770,
      "kung": 4771,
      "decl": 4772,
      "spring": 4773,
      "directly": 4774,
      "faithful": 4775,
      "plausible": 4776,
      "maintain": 4777,
      "mock": 4778,
      "arded": 4779,
      "ideal": 4780,
      "mates": 4781,
      "committed": 4782,
      "universe": 4783,
      "tarzan": 4784,
      "wilson": 4785,
      "dinosaur": 4786,
      "fon": 4787,
      "kur": 4788,
      "ched": 4789,
      "whel": 4790,
      "plans": 4791,
      "adding": 4792,
      "professor": 4793,
      "depressing": 4794,
      "lud": 4795,
      "inner": 4796,
      "craw": 4797,
      "forest": 4798,
      "idiot": 4799,
      "washington": 4800,
      "segment": 4801,
      "qualities": 4802,
      "canadian": 4803,
      "cure": 4804,
      "enstein": 4805,
      "champ": 4806,
      "ador": 4807,
      "dean": 4808,
      "focused": 4809,
      "sorts": 4810,
      "benef": 4811,
      "learns": 4812,
      "demand": 4813,
      "intentionally": 4814,
      "hint": 4815,
      "ike": 4816,
      "ruined": 4817,
      "imaginative": 4818,
      "department": 4819,
      "wwi": 4820,
      "notch": 4821,
      "trap": 4822,
      "ause": 4823,
      "holmes": 4824,
      "virtually": 4825,
      "anged": 4826,
      "farm": 4827,
      "handled": 4828,
      "satan": 4829,
      "ov": 4830,
      "vague": 4831,
      "instru": 4832,
      "toler": 4833,
      "connect": 4834,
      "sympathy": 4835,
      "aint": 4836,
      "ashing": 4837,
      "calling": 4838,
      "distri": 4839,
      "massac": 4840,
      "prime": 4841,
      "jewish": 4842,
      "depicted": 4843,
      "substance": 4844,
      "veteran": 4845,
      "arrest": 4846,
      "semi": 4847,
      "plor": 4848,
      "spends": 4849,
      "spects": 4850,
      "bull": 4851,
      "yard": 4852,
      "alco": 4853,
      "ases": 4854,
      "leep": 4855,
      "performed": 4856,
      "influence": 4857,
      "relatively": 4858,
      "nut": 4859,
      "asleep": 4860,
      "therine": 4861,
      "confess": 4862,
      "movement": 4863,
      "latest": 4864,
      "demons": 4865,
      "false": 4866,
      "method": 4867,
      "flight": 4868,
      "edward": 4869,
      "noon": 4870,
      "amor": 4871,
      "rod": 4872,
      "outrage": 4873,
      "firm": 4874,
      "makeup": 4875,
      "landsc": 4876,
      "believed": 4877,
      "changing": 4878,
      "praise": 4879,
      "security": 4880,
      "ium": 4881,
      "roger": 4882,
      "goth": 4883,
      "lower": 4884,
      "friday": 4885,
      "legal": 4886,
      "swim": 4887,
      "multiple": 4888,
      "integr": 4889,
      "alcohol": 4890,
      "hh": 4891,
      "som": 4892,
      "tte": 4893,
      "meat": 4894,
      "cyn": 4895,
      "appreciated": 4896,
      "broadway": 4897,
      "vietnam": 4898,
      "excitement": 4899,
      "aur": 4900,
      "caine": 4901,
      "dd": 4902,
      "rece": 4903,
      "dos": 4904,
      "dude": 4905,
      "patient": 4906,
      "elizabeth": 4907,
      "\"),": 4908,
      "phis": 4909,
      "fee": 4910,
      "drac": 4911,
      "variety": 4912,
      "training": 4913,
      "captures": 4914,
      "recognize": 4915,
      "prepared": 4916,
      "1st": 4917,
      "carp": 4918,
      "speaks": 4919,
      "emphas": 4920,
      "bush": 4921,
      "abuse": 4922,
      "compar": 4923,
      "costu": 4924,
      "shine": 4925,
      "cring": 4926,
      "ache": 4927,
      "carol": 4928,
      "pursu": 4929,
      "resist": 4930,
      "practically": 4931,
      "continuity": 4932,
      "welcome": 4933,
      "guilty": 4934,
      "costume": 4935,
      "stab": 4936,
      "previously": 4937,
      "trilo": 4938,
      "johnson": 4939,
      "murphy": 4940,
      "experiences": 4941,
      "dynam": 4942,
      "convince": 4943,
      "incid": 4944,
      "omen": 4945,
      "betray": 4946,
      "cooper": 4947,
      "featured": 4948,
      "russell": 4949,
      "cave": 4950,
      "pier": 4951,
      "acqu": 4952,
      "rights": 4953,
      "passing": 4954,
      "pati": 4955,
      "suspenseful": 4956,
      "studios": 4957,
      "conversation": 4958,
      "mous": 4959,
      "sink": 4960,
      "sna": 4961,
      "tag": 4962,
      "mail": 4963,
      "quin": 4964,
      "display": 4965,
      "partic": 4966,
      "worthwhile": 4967,
      "tons": 4968,
      "unfortunate": 4969,
      "loyal": 4970,
      "jaw": 4971,
      "reminis": 4972,
      "exagger": 4973,
      "parker": 4974,
      "structure": 4975,
      "):": 4976,
      "mud": 4977,
      "winter": 4978,
      "degree": 4979,
      "gray": 4980,
      "crying": 4981,
      "headed": 4982,
      "walker": 4983,
      "luke": 4984,
      "victor": 4985,
      "steps": 4986,
      "establish": 4987,
      "bare": 4988,
      "pted": 4989,
      "gie": 4990,
      "spre": 4991,
      "isol": 4992,
      "china": 4993,
      "braz": 4994,
      "deadly": 4995,
      "suffers": 4996,
      "sensitive": 4997,
      "extraordinary": 4998,
      "accidentally": 4999,
      "hanging": 5000,
      "granted": 5001,
      "category": 5002,
      "neat": 5003,
      "istan": 5004,
      "sav": 5005,
      "mono": 5006,
      "warri": 5007,
      "hammer": 5008,
      "haunted": 5009,
      "nurse": 5010,
      "dare": 5011,
      "sne": 5012,
      "brick": 5013,
      "usa": 5014,
      "shy": 5015,
      "cheese": 5016,
      "superman": 5017,
      "supernatural": 5018,
      "initial": 5019,
      "nazi": 5020,
      "las": 5021,
      "sno": 5022,
      "ued": 5023,
      "2001": 5024,
      "trilogy": 5025,
      "ather": 5026,
      "ji": 5027,
      "mst": 5028,
      "report": 5029,
      "bott": 5030,
      "westerns": 5031,
      "clichéd": 5032,
      "accents": 5033,
      "nights": 5034,
      "oul": 5035,
      "trapped": 5036,
      "mainstream": 5037,
      "claimed": 5038,
      "reporter": 5039,
      "betty": 5040,
      "everywhere": 5041,
      "walter": 5042,
      "cases": 5043,
      "politics": 5044,
      "execution": 5045,
      "pher": 5046,
      "analy": 5047,
      "femin": 5048,
      "upper": 5049,
      "rule": 5050,
      "drew": 5051,
      "seasons": 5052,
      "julia": 5053,
      "mit": 5054,
      "chor": 5055,
      "poe": 5056,
      "tural": 5057,
      "anime": 5058,
      "favorites": 5059,
      "touches": 5060,
      "oooo": 5061,
      "africa": 5062,
      "massive": 5063,
      "thankfully": 5064,
      "california": 5065,
      "refreshing": 5066,
      "dracula": 5067,
      "!),": 5068,
      "ske": 5069,
      "ini": 5070,
      "bore": 5071,
      "bothered": 5072,
      "minds": 5073,
      "tition": 5074,
      "profound": 5075,
      "protect": 5076,
      "habit": 5077,
      "pian": 5078,
      "tong": 5079,
      "rebel": 5080,
      "edy": 5081,
      "chose": 5082,
      "uss": 5083,
      "surprises": 5084,
      "mexican": 5085,
      "bird": 5086,
      "stoo": 5087,
      "alling": 5088,
      "gues": 5089,
      "southern": 5090,
      "stereotypical": 5091,
      "ludic": 5092,
      "kiss": 5093,
      "wreck": 5094,
      "ached": 5095,
      "unlikely": 5096,
      "connected": 5097,
      "improve": 5098,
      "melodrama": 5099,
      "ert": 5100,
      "excess": 5101,
      "colon": 5102,
      "closer": 5103,
      "fictional": 5104,
      "term": 5105,
      "aming": 5106,
      "robo": 5107,
      "gritty": 5108,
      "warned": 5109,
      "eastwood": 5110,
      "tree": 5111,
      "poign": 5112,
      "whoever": 5113,
      "mented": 5114,
      "lifetime": 5115,
      "weekend": 5116,
      "required": 5117,
      "dozen": 5118,
      "realizes": 5119,
      "interview": 5120,
      "productions": 5121,
      "amazingly": 5122,
      "india": 5123,
      "wilder": 5124,
      "destroyed": 5125,
      "storm": 5126,
      "cence": 5127,
      "rhy": 5128,
      "intim": 5129,
      "stro": 5130,
      "forgot": 5131,
      "conv": 5132,
      "icted": 5133,
      "jeal": 5134,
      "deaths": 5135,
      "rub": 5136,
      "rolled": 5137,
      "abandoned": 5138,
      "outing": 5139,
      "homosexual": 5140,
      "franch": 5141,
      "resid": 5142,
      "nostal": 5143,
      "spite": 5144,
      "nibal": 5145,
      "convinced": 5146,
      "legendary": 5147,
      "dict": 5148,
      "spy": 5149,
      "creation": 5150,
      "regarding": 5151,
      "frightening": 5152,
      "gm": 5153,
      "pile": 5154,
      "pool": 5155,
      "maid": 5156,
      "metal": 5157,
      "shark": 5158,
      "renting": 5159,
      "fortune": 5160,
      "painting": 5161,
      "weapons": 5162,
      ",'": 5163,
      "stolen": 5164,
      "touched": 5165,
      "designed": 5166,
      "hong": 5167,
      "minded": 5168,
      "colors": 5169,
      "appearing": 5170,
      "summary": 5171,
      "mickey": 5172,
      "sions": 5173,
      "ifi": 5174,
      "seek": 5175,
      "fulci": 5176,
      "interviews": 5177,
      "helen": 5178,
      "pulls": 5179,
      "balls": 5180,
      "vacation": 5181,
      "uff": 5182,
      "holi": 5183,
      "sophis": 5184,
      "torn": 5185,
      "worry": 5186,
      "dragon": 5187,
      "friendly": 5188,
      "laura": 5189,
      "narration": 5190,
      "massacre": 5191,
      "hr": 5192,
      "toy": 5193,
      "alright": 5194,
      "ilities": 5195,
      "kets": 5196,
      "stranger": 5197,
      "underground": 5198,
      "imagery": 5199,
      "fairy": 5200,
      "essential": 5201,
      "brooks": 5202,
      "reputation": 5203,
      "kane": 5204,
      "atives": 5205,
      "iles": 5206,
      "divor": 5207,
      "grues": 5208,
      "obsc": 5209,
      "princess": 5210,
      "effectively": 5211,
      "miller": 5212,
      "mildly": 5213,
      "remotely": 5214,
      "bay": 5215,
      "dur": 5216,
      "closing": 5217,
      "capital": 5218,
      "harm": 5219,
      "sarah": 5220,
      "status": 5221,
      "complicated": 5222,
      "provoking": 5223,
      "sophistic": 5224,
      "hired": 5225,
      "oce": 5226,
      "indul": 5227,
      "greater": 5228,
      "spoken": 5229,
      "tremend": 5230,
      "lloy": 5231,
      "ware": 5232,
      "bron": 5233,
      "uted": 5234,
      "sham": 5235,
      "charge": 5236,
      "philli": 5237,
      "lands": 5238,
      "magical": 5239,
      "device": 5240,
      "nett": 5241,
      "originality": 5242,
      "listening": 5243,
      "mistakes": 5244,
      "\").": 5245,
      "bic": 5246,
      "zy": 5247,
      "demo": 5248,
      "explor": 5249,
      "tales": 5250,
      "otes": 5251,
      "cheer": 5252,
      "sinatra": 5253,
      "address": 5254,
      "ruin": 5255,
      "explains": 5256,
      "blockbuster": 5257,
      "theory": 5258,
      "cra": 5259,
      "screening": 5260,
      "swed": 5261,
      "figures": 5262,
      "treasure": 5263,
      "campy": 5264,
      "occasional": 5265,
      "quirky": 5266,
      "environment": 5267,
      "gruesome": 5268,
      "indie": 5269,
      "stair": 5270,
      "deeper": 5271,
      "elli": 5272,
      "clark": 5273,
      "raised": 5274,
      "buying": 5275,
      "burton": 5276,
      "paying": 5277,
      "1980": 5278,
      "carpenter": 5279,
      "pg": 5280,
      "rach": 5281,
      "vast": 5282,
      "shif": 5283,
      "offered": 5284,
      "sounded": 5285,
      "paint": 5286,
      "tradition": 5287,
      "technically": 5288,
      "particip": 5289,
      "kat": 5290,
      "yl": 5291,
      "ada": 5292,
      "advant": 5293,
      "timing": 5294,
      "aken": 5295,
      "disagree": 5296,
      "phen": 5297,
      "puzz": 5298,
      "atrocious": 5299,
      "choices": 5300,
      "curse": 5301,
      "stayed": 5302,
      "heavily": 5303,
      "arrives": 5304,
      "combined": 5305,
      "santa": 5306,
      "hoffman": 5307,
      "wwii": 5308,
      "boun": 5309,
      "task": 5310,
      "inger": 5311,
      "astr": 5312,
      "chased": 5313,
      "/>*": 5314,
      "susan": 5315,
      "concent": 5316,
      "shorts": 5317,
      "paralle": 5318,
      "aze": 5319,
      "baseball": 5320,
      "depiction": 5321,
      "knight": 5322,
      "wand": 5323,
      "notori": 5324,
      "doo": 5325,
      "gia": 5326,
      "stomach": 5327,
      "starred": 5328,
      "examples": 5329,
      "dinner": 5330,
      "focuses": 5331,
      "funnier": 5332,
      "captiv": 5333,
      "pes": 5334,
      "noxious": 5335,
      "outs": 5336,
      "feed": 5337,
      "ida": 5338,
      "teeth": 5339,
      "marie": 5340,
      "murderer": 5341,
      "patri": 5342,
      "nonetheless": 5343,
      "lawyer": 5344,
      "throwing": 5345,
      "dollar": 5346,
      "ners": 5347,
      "yle": 5348,
      "alter": 5349,
      "amazed": 5350,
      "1970": 5351,
      "bac": 5352,
      "thumb": 5353,
      "proof": 5354,
      "carl": 5355,
      "condition": 5356,
      "cultural": 5357,
      "freddy": 5358,
      "scares": 5359,
      "lonely": 5360,
      "lisa": 5361,
      "ching": 5362,
      "aded": 5363,
      "crude": 5364,
      "tax": 5365,
      "obnoxious": 5366,
      "border": 5367,
      "folk": 5368,
      "decades": 5369,
      "weapon": 5370,
      "dent": 5371,
      "lap": 5372,
      "ination": 5373,
      "uninteresting": 5374,
      "overwhel": 5375,
      "kinds": 5376,
      "reveals": 5377,
      "initially": 5378,
      "kni": 5379,
      "unconvincing": 5380,
      "web": 5381,
      "aking": 5382,
      "phan": 5383,
      "downright": 5384,
      "subsequ": 5385,
      "halfway": 5386,
      "uniform": 5387,
      "appy": 5388,
      "racist": 5389,
      "ignore": 5390,
      "goofy": 5391,
      "mun": 5392,
      "1950": 5393,
      "ashed": 5394,
      "tommy": 5395,
      "hopeless": 5396,
      "nuclear": 5397,
      "mgm": 5398,
      "isto": 5399,
      "ensu": 5400,
      "elder": 5401,
      "vincent": 5402,
      "introduction": 5403,
      "philip": 5404,
      "criticism": 5405,
      "increas": 5406,
      "caring": 5407,
      "handle": 5408,
      "jobs": 5409,
      "throws": 5410,
      "sunday": 5411,
      "official": 5412,
      "itar": 5413,
      "lia": 5414,
      "perfection": 5415,
      "guide": 5416,
      "flor": 5417,
      "warner": 5418,
      "expert": 5419,
      "drinking": 5420,
      "nude": 5421,
      "thed": 5422,
      "challen": 5423,
      "prevent": 5424,
      "intens": 5425,
      "welles": 5426,
      "blat": 5427,
      "severe": 5428,
      "delivery": 5429,
      "assistant": 5430,
      "brazil": 5431,
      "mort": 5432,
      "pic": 5433,
      "redu": 5434,
      "exer": 5435,
      "cole": 5436,
      "join": 5437,
      "adequ": 5438,
      "mond": 5439,
      "addy": 5440,
      "reflect": 5441,
      "journal": 5442,
      "ludicrous": 5443,
      "aunt": 5444,
      "fbi": 5445,
      "pion": 5446,
      "intr": 5447,
      "ita": 5448,
      "tear": 5449,
      "guest": 5450,
      "screenwriter": 5451,
      "dramat": 5452,
      "occup": 5453,
      "facial": 5454,
      "stays": 5455,
      "lloyd": 5456,
      "99": 5457,
      "pig": 5458,
      "vier": 5459,
      "awa": 5460,
      "bern": 5461,
      "finan": 5462,
      "hugh": 5463,
      "ugs": 5464,
      "survivor": 5465,
      "oliver": 5466,
      "\"?": 5467,
      "zard": 5468,
      "everyday": 5469,
      "cliff": 5470,
      "admitted": 5471,
      "retarded": 5472,
      "struggling": 5473,
      "mirac": 5474,
      "significant": 5475,
      "minimal": 5476,
      "artists": 5477,
      "premi": 5478,
      "mentally": 5479,
      "contest": 5480,
      "titled": 5481,
      "trait": 5482,
      "racism": 5483,
      "desperately": 5484,
      "consistent": 5485,
      "succeeds": 5486,
      "chasing": 5487,
      "cé": 5488,
      "ee": 5489,
      "reward": 5490,
      "bollywood": 5491,
      "crush": 5492,
      "causes": 5493,
      "fourth": 5494,
      "struck": 5495,
      "respon": 5496,
      "sleeping": 5497,
      "hust": 5498,
      "hence": 5499,
      "kath": 5500,
      "error": 5501,
      "woody": 5502,
      "description": 5503,
      "orient": 5504,
      "comical": 5505,
      "balance": 5506,
      "intentional": 5507,
      "bridge": 5508,
      "inspiration": 5509,
      "determined": 5510,
      "pas": 5511,
      "tis": 5512,
      "isher": 5513,
      "beloved": 5514,
      "aces": 5515,
      "aby": 5516,
      "afternoon": 5517,
      "answers": 5518,
      "happiness": 5519,
      "ashamed": 5520,
      "amongst": 5521,
      "metap": 5522,
      "cowboy": 5523,
      "pregnant": 5524,
      "24": 5525,
      "bis": 5526,
      "bang": 5527,
      "jun": 5528,
      "phe": 5529,
      "internet": 5530,
      "medical": 5531,
      "daily": 5532,
      "shaw": 5533,
      "factory": 5534,
      "learning": 5535,
      "chester": 5536,
      "crafted": 5537,
      "jen": 5538,
      "karen": 5539,
      "stunt": 5540,
      "libr": 5541,
      "aston": 5542,
      "warming": 5543,
      "stupidity": 5544,
      "magaz": 5545,
      "ratings": 5546,
      "expressions": 5547,
      "bourne": 5548,
      "columbo": 5549,
      "dave": 5550,
      "thre": 5551,
      "eness": 5552,
      "league": 5553,
      "pled": 5554,
      "pointed": 5555,
      "helping": 5556,
      "aham": 5557,
      "italy": 5558,
      "attempting": 5559,
      "purely": 5560,
      "reminiscent": 5561,
      "sive": 5562,
      "tap": 5563,
      "entry": 5564,
      "dear": 5565,
      "simpl": 5566,
      "riding": 5567,
      "properly": 5568,
      "tat": 5569,
      "assign": 5570,
      "carried": 5571,
      "madness": 5572,
      "graphics": 5573,
      "concert": 5574,
      "accepted": 5575,
      "reference": 5576,
      "packed": 5577,
      "iat": 5578,
      "diam": 5579,
      "poet": 5580,
      "storytelling": 5581,
      "...\"": 5582,
      ".)<": 5583,
      "karl": 5584,
      "finger": 5585,
      "guarante": 5586,
      "motor": 5587,
      "ads": 5588,
      "geon": 5589,
      "clips": 5590,
      "michelle": 5591,
      "alike": 5592,
      "attacks": 5593,
      "interpretation": 5594,
      "3k": 5595,
      "bren": 5596,
      "sab": 5597,
      "atl": 5598,
      "acing": 5599,
      "amy": 5600,
      "abilities": 5601,
      "conven": 5602,
      "drum": 5603,
      "stealing": 5604,
      "contact": 5605,
      "chilling": 5606,
      "fond": 5607,
      "ime": 5608,
      "olic": 5609,
      "disbelief": 5610,
      "matrix": 5611,
      "enjoying": 5612,
      "hardy": 5613,
      "nery": 5614,
      "spook": 5615,
      "extent": 5616,
      "catherine": 5617,
      "drives": 5618,
      "60s": 5619,
      "mul": 5620,
      "anity": 5621,
      "joint": 5622,
      "carries": 5623,
      "grey": 5624,
      "conventional": 5625,
      "separate": 5626,
      "controversial": 5627,
      "kis": 5628,
      "ament": 5629,
      "abs": 5630,
      "plastic": 5631,
      "battles": 5632,
      "striking": 5633,
      "inspiring": 5634,
      "fabulous": 5635,
      "45": 5636,
      "cod": 5637,
      "mup": 5638,
      "scrip": 5639,
      "confront": 5640,
      "comedian": 5641,
      "apocal": 5642,
      "ocean": 5643,
      "tick": 5644,
      "/>(": 5645,
      "credible": 5646,
      "announ": 5647,
      "risk": 5648,
      "novels": 5649,
      "strangely": 5650,
      "hud": 5651,
      "nit": 5652,
      "manager": 5653,
      "wears": 5654,
      "umph": 5655,
      "shoes": 5656,
      "dawn": 5657,
      "flawed": 5658,
      "criminals": 5659,
      "gus": 5660,
      "chic": 5661,
      "seeking": 5662,
      "clint": 5663,
      "laid": 5664,
      "stylish": 5665,
      "tribute": 5666,
      "apocaly": 5667,
      "fx": 5668,
      "rum": 5669,
      "tense": 5670,
      "zel": 5671,
      "eral": 5672,
      "nose": 5673,
      "adays": 5674,
      "ami": 5675,
      "conspir": 5676,
      "letting": 5677,
      "sinister": 5678,
      "basis": 5679,
      "cameron": 5680,
      "opened": 5681,
      "deliber": 5682,
      "picks": 5683,
      "wheel": 5684,
      "install": 5685,
      "nicol": 5686,
      "smoo": 5687,
      "robber": 5688,
      "lazy": 5689,
      "beit": 5690,
      "soviet": 5691,
      "notable": 5692,
      "actic": 5693,
      "topic": 5694,
      "elev": 5695,
      "aves": 5696,
      "lished": 5697,
      "nowadays": 5698,
      "string": 5699,
      "sincere": 5700,
      "innocence": 5701,
      "carrying": 5702,
      "tune": 5703,
      "bast": 5704,
      "khan": 5705,
      "albeit": 5706,
      "holly": 5707,
      "therland": 5708,
      "gio": 5709,
      "shape": 5710,
      "confusion": 5711,
      "transfer": 5712,
      "thousands": 5713,
      "scratch": 5714,
      "advantage": 5715,
      "lest": 5716,
      "ural": 5717,
      "elled": 5718,
      "disc": 5719,
      "triumph": 5720,
      "phr": 5721,
      "dramas": 5722,
      "broke": 5723,
      "successfully": 5724,
      "australia": 5725,
      "mexico": 5726,
      "technique": 5727,
      "frequently": 5728,
      "cousin": 5729,
      "inc": 5730,
      "access": 5731,
      "dece": 5732,
      "sus": 5733,
      "disgu": 5734,
      "blair": 5735,
      "fortunately": 5736,
      "exceptional": 5737,
      "credibility": 5738,
      "2005": 5739,
      "penn": 5740,
      "gul": 5741,
      "mouse": 5742,
      "oting": 5743,
      "pon": 5744,
      "sutherland": 5745,
      "ironic": 5746,
      "doors": 5747,
      "whereas": 5748,
      "maria": 5749,
      "192": 5750,
      "corner": 5751,
      "fallen": 5752,
      "burst": 5753,
      "appearances": 5754,
      "pacino": 5755,
      "equal": 5756,
      "settings": 5757,
      "slaughter": 5758,
      "wave": 5759,
      "chy": 5760,
      "loid": 5761,
      "tery": 5762,
      "robb": 5763,
      "daughters": 5764,
      "atmospher": 5765,
      "bergman": 5766,
      "escapes": 5767,
      "wyck": 5768,
      "mst3k": 5769,
      "scripts": 5770,
      "rome": 5771,
      "useless": 5772,
      "countries": 5773,
      "sleazy": 5774,
      "attacked": 5775,
      "immense": 5776,
      "nancy": 5777,
      "tongue": 5778,
      "ego": 5779,
      "lovable": 5780,
      "exists": 5781,
      "shell": 5782,
      "aki": 5783,
      "selling": 5784,
      "horrific": 5785,
      "mindless": 5786,
      "bald": 5787,
      "*****": 5788,
      "acceptable": 5789,
      "revolves": 5790,
      "regardless": 5791,
      "gripping": 5792,
      "sentimental": 5793,
      "nd": 5794,
      "shr": 5795,
      "clar": 5796,
      "greatly": 5797,
      "anticip": 5798,
      "stanwyck": 5799,
      "wealthy": 5800,
      "franchise": 5801,
      "bart": 5802,
      "cats": 5803,
      "rates": 5804,
      "tha": 5805,
      "thief": 5806,
      "absor": 5807,
      "shan": 5808,
      "blade": 5809,
      "lessons": 5810,
      "passes": 5811,
      "tarant": 5812,
      "repetit": 5813,
      "angels": 5814,
      "bilities": 5815,
      "ghosts": 5816,
      "champion": 5817,
      "pink": 5818,
      "esque": 5819,
      "alas": 5820,
      "burns": 5821,
      "sexuality": 5822,
      "kicks": 5823,
      "franco": 5824,
      "bobby": 5825,
      "greek": 5826,
      "gut": 5827,
      "replaced": 5828,
      "kel": 5829,
      "rial": 5830,
      "cannibal": 5831,
      "opath": 5832,
      "searching": 5833,
      "struggles": 5834,
      "egy": 5835,
      "pray": 5836,
      "voy": 5837,
      "kenned": 5838,
      "convey": 5839,
      "wicked": 5840,
      "victoria": 5841,
      "distribut": 5842,
      "isms": 5843,
      "butt": 5844,
      "illust": 5845,
      "foster": 5846,
      "marg": 5847,
      "repeat": 5848,
      "idiotic": 5849,
      "griff": 5850,
      "thirty": 5851,
      "ninja": 5852,
      ":)": 5853,
      "aired": 5854,
      "gger": 5855,
      "ix": 5856,
      "ading": 5857,
      "hem": 5858,
      "mechan": 5859,
      "raise": 5860,
      "stops": 5861,
      "vised": 5862,
      "burt": 5863,
      "guessing": 5864,
      "hipp": 5865,
      "innov": 5866,
      "jerk": 5867,
      "stunts": 5868,
      "embarrassed": 5869,
      "specific": 5870,
      "thousand": 5871,
      "fighter": 5872,
      "cynical": 5873,
      "snake": 5874,
      "challenge": 5875,
      "intensity": 5876,
      "sally": 5877,
      "arrog": 5878,
      "editor": 5879,
      "icting": 5880,
      "vet": 5881,
      "upset": 5882,
      "spark": 5883,
      "posing": 5884,
      "restaur": 5885,
      "flynn": 5886,
      "established": 5887,
      "etern": 5888,
      "ien": 5889,
      "zone": 5890,
      "ari": 5891,
      "widow": 5892,
      "doc": 5893,
      "fetch": 5894,
      "dislike": 5895,
      "counts": 5896,
      "osity": 5897,
      "reynold": 5898,
      "bearable": 5899,
      "jamie": 5900,
      "poignant": 5901,
      "yu": 5902,
      "scars": 5903,
      "ouses": 5904,
      "clu": 5905,
      "matth": 5906,
      "listed": 5907,
      "scarecrow": 5908,
      "electric": 5909,
      "dal": 5910,
      "hing": 5911,
      "ib": 5912,
      "rol": 5913,
      "guid": 5914,
      "parano": 5915,
      "bugs": 5916,
      "relax": 5917,
      "deni": 5918,
      "silence": 5919,
      "midnight": 5920,
      "scientists": 5921,
      "breathtaking": 5922,
      "mble": 5923,
      "thunder": 5924,
      "beer": 5925,
      "trau": 5926,
      "quis": 5927,
      "shines": 5928,
      "valent": 5929,
      "mighty": 5930,
      "legs": 5931,
      "dge": 5932,
      "infer": 5933,
      "outer": 5934,
      "alleg": 5935,
      "bride": 5936,
      "rious": 5937,
      "suits": 5938,
      "happily": 5939,
      "gradu": 5940,
      "kennedy": 5941,
      "eyed": 5942,
      "gic": 5943,
      "tall": 5944,
      "beck": 5945,
      "powell": 5946,
      "boot": 5947,
      "ishment": 5948,
      "reads": 5949,
      "presentation": 5950,
      "freeman": 5951,
      "spiritual": 5952,
      "psychiat": 5953,
      "shadows": 5954,
      "chases": 5955,
      "marvelous": 5956,
      "eager": 5957,
      "ika": 5958,
      "tin": 5959,
      "rever": 5960,
      "vivid": 5961,
      "hears": 5962,
      "screw": 5963,
      "needless": 5964,
      "suggests": 5965,
      "torial": 5966,
      "hbo": 5967,
      "yel": 5968,
      "invisible": 5969,
      "rein": 5970,
      "icing": 5971,
      "scor": 5972,
      "quote": 5973,
      "affection": 5974,
      "solve": 5975,
      "videos": 5976,
      "logist": 5977,
      "oddly": 5978,
      "millions": 5979,
      "boredom": 5980,
      "smoking": 5981,
      "1950s": 5982,
      "hiding": 5983,
      "obsession": 5984,
      "tender": 5985,
      "destruction": 5986,
      "smooth": 5987,
      "size": 5988,
      "sket": 5989,
      "advan": 5990,
      "detr": 5991,
      "connery": 5992,
      "lesser": 5993,
      "trial": 5994,
      "sings": 5995,
      "ception": 5996,
      "musicals": 5997,
      "!!!!!!!!": 5998,
      "shoots": 5999,
      "techniques": 6000,
      "jessica": 6001,
      "holiday": 6002,
      "enor": 6003,
      "arnold": 6004,
      "indu": 6005,
      "clum": 6006,
      "murray": 6007,
      "bury": 6008,
      "attempted": 6009,
      "2000": 6010,
      "snakes": 6011,
      "destro": 6012,
      "tam": 6013,
      "thel": 6014,
      "chew": 6015,
      "noted": 6016,
      "wax": 6017,
      "engine": 6018,
      "brow": 6019,
      "consists": 6020,
      "passionate": 6021,
      "physically": 6022,
      "basement": 6023,
      "sophisticated": 6024,
      "==": 6025,
      "athan": 6026,
      "hatt": 6027,
      "jazz": 6028,
      "redem": 6029,
      "toile": 6030,
      "det": 6031,
      "irony": 6032,
      "consequences": 6033,
      "bette": 6034,
      "turing": 6035,
      "month": 6036,
      "custo": 6037,
      "2006": 6038,
      "britain": 6039,
      "hearts": 6040,
      "birthday": 6041,
      "jumps": 6042,
      "reynolds": 6043,
      "imit": 6044,
      "ripped": 6045,
      "pear": 6046,
      "ourselves": 6047,
      "workers": 6048,
      "spector": 6049,
      "horrend": 6050,
      "homage": 6051,
      "troubled": 6052,
      "?).": 6053,
      "tied": 6054,
      "anced": 6055,
      "wasting": 6056,
      "pover": 6057,
      "cheek": 6058,
      "warn": 6059,
      "oblig": 6060,
      "audio": 6061,
      "instantly": 6062,
      "suffered": 6063,
      "meaningful": 6064,
      "locked": 6065,
      "andrews": 6066,
      "tarantino": 6067,
      "pound": 6068,
      "myst": 6069,
      "saves": 6070,
      "typically": 6071,
      "thrillers": 6072,
      "adapted": 6073,
      "intentions": 6074,
      "jonathan": 6075,
      "hundreds": 6076,
      "egypt": 6077,
      "thick": 6078,
      "modest": 6079,
      "unforgettable": 6080,
      "ultra": 6081,
      "pressed": 6082,
      "navy": 6083,
      "busy": 6084,
      "birds": 6085,
      "expensive": 6086,
      "yan": 6087,
      "dign": 6088,
      "exor": 6089,
      "marke": 6090,
      "leslie": 6091,
      "gotta": 6092,
      "rita": 6093,
      "hooked": 6094,
      "sque": 6095,
      "rely": 6096,
      "todd": 6097,
      "stress": 6098,
      "beating": 6099,
      "ambig": 6100,
      "math": 6101,
      "maniac": 6102,
      "essence": 6103,
      "shed": 6104,
      "iger": 6105,
      "glory": 6106,
      "closely": 6107,
      "ralph": 6108,
      "attraction": 6109,
      "protagonists": 6110,
      "outrageous": 6111,
      "rachel": 6112,
      "diane": 6113,
      "spar": 6114,
      "spiel": 6115,
      "duck": 6116,
      "jection": 6117,
      "curren": 6118,
      "dancer": 6119,
      "thrilling": 6120,
      "colorful": 6121,
      "briefly": 6122,
      "surrounding": 6123,
      "belongs": 6124,
      "achieved": 6125,
      "cen": 6126,
      "tire": 6127,
      "udo": 6128,
      "cham": 6129,
      "ader": 6130,
      "enda": 6131,
      "craz": 6132,
      "centric": 6133,
      "caric": 6134,
      "lett": 6135,
      "norman": 6136,
      "checking": 6137,
      "refuses": 6138,
      "neighborhood": 6139,
      "health": 6140,
      "alt": 6141,
      "noble": 6142,
      "ential": 6143,
      "overcome": 6144,
      "newsp": 6145,
      "clown": 6146,
      "performers": 6147,
      "knife": 6148,
      "fitting": 6149,
      "guts": 6150,
      "sends": 6151,
      "yo": 6152,
      "asp": 6153,
      "gosi": 6154,
      "prejud": 6155,
      "horses": 6156,
      "rooms": 6157,
      "satisfied": 6158,
      "hills": 6159,
      "catholic": 6160,
      "exercise": 6161,
      "metaphor": 6162,
      "ik": 6163,
      "rell": 6164,
      "tors": 6165,
      "bucks": 6166,
      "sidney": 6167,
      "ification": 6168,
      "bible": 6169,
      "fic": 6170,
      "ology": 6171,
      "pitt": 6172,
      "punk": 6173,
      "chil": 6174,
      "bean": 6175,
      "enters": 6176,
      "rian": 6177,
      "guilt": 6178,
      "emma": 6179,
      "reasonable": 6180,
      "weakness": 6181,
      "smoke": 6182,
      "\"...": 6183,
      "sadd": 6184,
      "adol": 6185,
      "elabor": 6186,
      "crimes": 6187,
      "males": 6188,
      "20th": 6189,
      "sandra": 6190,
      "laurel": 6191,
      "ambitious": 6192,
      "cringe": 6193,
      "notorious": 6194,
      "atmospheric": 6195,
      "matthau": 6196,
      "ops": 6197,
      "heist": 6198,
      "shower": 6199,
      "emily": 6200,
      "cake": 6201,
      "lacked": 6202,
      "blows": 6203,
      "shirt": 6204,
      "inj": 6205,
      "vies": 6206,
      "haha": 6207,
      "boom": 6208,
      "wake": 6209,
      "cycl": 6210,
      "wishes": 6211,
      "hunting": 6212,
      "1970s": 6213,
      "medium": 6214,
      "germans": 6215,
      "discovery": 6216,
      "kidnapped": 6217,
      "gren": 6218,
      "labor": 6219,
      "oil": 6220,
      "inher": 6221,
      "replace": 6222,
      "sevent": 6223,
      "user": 6224,
      "presum": 6225,
      "enjoyment": 6226,
      "bug": 6227,
      "carefully": 6228,
      "lugosi": 6229,
      "indians": 6230,
      "personalities": 6231,
      "competition": 6232,
      "?),": 6233,
      "stiff": 6234,
      "myth": 6235,
      "spending": 6236,
      "blance": 6237,
      "dubbing": 6238,
      "beings": 6239,
      "portrait": 6240,
      "godfather": 6241,
      "annoyed": 6242,
      "dialogs": 6243,
      "grandfather": 6244,
      "concerns": 6245,
      "raped": 6246,
      "puppet": 6247,
      "explicit": 6248,
      "mitchell": 6249,
      "korean": 6250,
      "muse": 6251,
      "rug": 6252,
      "infamous": 6253,
      "restrain": 6254,
      "ona": 6255,
      "toss": 6256,
      "hett": 6257,
      "uninspired": 6258,
      "condu": 6259,
      "counters": 6260,
      "spots": 6261,
      "dealt": 6262,
      "importance": 6263,
      "limit": 6264,
      "glimpse": 6265,
      "caricature": 6266,
      "mars": 6267,
      "returning": 6268,
      "stain": 6269,
      "staff": 6270,
      "rive": 6271,
      "button": 6272,
      "selfish": 6273,
      "ensemble": 6274,
      "revelation": 6275,
      "patch": 6276,
      "aced": 6277,
      "pses": 6278,
      "miscast": 6279,
      "stood": 6280,
      "vices": 6281,
      "develops": 6282,
      "predator": 6283,
      "larger": 6284,
      "split": 6285,
      "fashioned": 6286,
      "cinder": 6287,
      "hitting": 6288,
      "isra": 6289,
      "omy": 6290,
      "neil": 6291,
      "assa": 6292,
      "leton": 6293,
      "pulp": 6294,
      "importantly": 6295,
      "belle": 6296,
      "miserably": 6297,
      "piano": 6298,
      "hudson": 6299,
      "fian": 6300,
      "jake": 6301,
      "tad": 6302,
      "inspector": 6303,
      "err": 6304,
      "reel": 6305,
      "talked": 6306,
      "matthe": 6307,
      "smug": 6308,
      "elsewhere": 6309,
      "gather": 6310,
      "rushed": 6311,
      "repeatedly": 6312,
      "gothic": 6313,
      "redemption": 6314,
      "2nd": 6315,
      "forgive": 6316,
      "coast": 6317,
      "opposed": 6318,
      "illian": 6319,
      "hype": 6320,
      "cycle": 6321,
      "souls": 6322,
      "identify": 6323,
      "iii": 6324,
      "tricks": 6325,
      "savage": 6326,
      "fiancé": 6327,
      "dled": 6328,
      "mund": 6329,
      "allo": 6330,
      "lol": 6331,
      "uncomfortable": 6332,
      "carter": 6333,
      "phant": 6334,
      "fatal": 6335,
      "crook": 6336,
      "spielberg": 6337,
      "bby": 6338,
      "wack": 6339,
      "chest": 6340,
      "appl": 6341,
      "clay": 6342,
      "bleak": 6343,
      "marine": 6344,
      "fancy": 6345,
      "pride": 6346,
      "nelson": 6347,
      "ignored": 6348,
      "mummy": 6349,
      "abrup": 6350,
      "econ": 6351,
      "jere": 6352,
      "heat": 6353,
      "suspects": 6354,
      "coincid": 6355,
      "udge": 6356,
      "worker": 6357,
      "superfic": 6358,
      "hopper": 6359,
      "frankenstein": 6360,
      "sticks": 6361,
      "********": 6362,
      "grows": 6363,
      "--------": 6364,
      "crisis": 6365,
      "magazine": 6366,
      "hire": 6367,
      "mp": 6368,
      "rics": 6369,
      "vey": 6370,
      "devi": 6371,
      "hoped": 6372,
      "relent": 6373,
      "titan": 6374,
      "burning": 6375,
      "juven": 6376,
      "revealing": 6377,
      "kubrick": 6378,
      "cardboard": 6379,
      "affected": 6380,
      "philosoph": 6381,
      "phenomen": 6382,
      "cig": 6383,
      "ashes": 6384,
      "highlights": 6385,
      "attend": 6386,
      "breed": 6387,
      "cameos": 6388,
      "picking": 6389,
      "mistaken": 6390,
      "dragged": 6391,
      "broadcast": 6392,
      "splen": 6393,
      "melodramatic": 6394,
      "possessed": 6395,
      "tube": 6396,
      "kirk": 6397,
      "pper": 6398,
      "encounters": 6399,
      "liking": 6400,
      "gee": 6401,
      "trite": 6402,
      "josh": 6403,
      "scripted": 6404,
      "masters": 6405,
      "creators": 6406,
      "engaged": 6407,
      "precious": 6408,
      "dropped": 6409,
      "drags": 6410,
      "alexander": 6411,
      "jumping": 6412,
      "increasingly": 6413,
      "dud": 6414,
      "loser": 6415,
      "forbid": 6416,
      "ifies": 6417,
      "bold": 6418,
      "eva": 6419,
      "eval": 6420,
      "sexually": 6421,
      "closed": 6422,
      "rogers": 6423,
      "insulting": 6424,
      "fifteen": 6425,
      "citizen": 6426,
      "library": 6427,
      "cinderella": 6428,
      "hick": 6429,
      "armed": 6430,
      "combat": 6431,
      "covers": 6432,
      "afford": 6433,
      "performing": 6434,
      "morris": 6435,
      "slick": 6436,
      "eleg": 6437,
      "shortly": 6438,
      "easier": 6439,
      "believably": 6440,
      "admire": 6441,
      "territory": 6442,
      "curiosity": 6443,
      "inevitable": 6444,
      "restaurant": 6445,
      "sag": 6446,
      "vise": 6447,
      "wan": 6448,
      "inexplic": 6449,
      "orches": 6450,
      "ila": 6451,
      "peck": 6452,
      "frag": 6453,
      "ellar": 6454,
      "coy": 6455,
      "bless": 6456,
      "direc": 6457,
      "clock": 6458,
      "......": 6459,
      "rapid": 6460,
      "investigation": 6461,
      "eccentric": 6462,
      "endearing": 6463,
      "cist": 6464,
      "fist": 6465,
      "accompan": 6466,
      "antics": 6467,
      "blank": 6468,
      "horrid": 6469,
      "subplot": 6470,
      "horrors": 6471,
      "distant": 6472,
      "spoiled": 6473,
      "appalling": 6474,
      "kudos": 6475,
      "remaining": 6476,
      "vulner": 6477,
      "eerie": 6478,
      "chicago": 6479,
      "pap": 6480,
      "uct": 6481,
      "arab": 6482,
      "accused": 6483,
      "icop": 6484,
      "unintentionally": 6485,
      "woo": 6486,
      "helicop": 6487,
      "handful": 6488,
      "launch": 6489,
      "virus": 6490,
      "stanley": 6491,
      "individuals": 6492,
      "duty": 6493,
      "charisma": 6494,
      "toilet": 6495,
      "amo": 6496,
      "hul": 6497,
      "argue": 6498,
      "terrifying": 6499,
      "ables": 6500,
      "soph": 6501,
      "peak": 6502,
      "confron": 6503,
      "aude": 6504,
      "grin": 6505,
      "engage": 6506,
      "austen": 6507,
      "luckily": 6508,
      "wallace": 6509,
      "bruno": 6510,
      "cabin": 6511,
      "repetitive": 6512,
      "horrendous": 6513,
      "!.": 6514,
      "oscars": 6515,
      "pam": 6516,
      "noise": 6517,
      "holy": 6518,
      "goal": 6519,
      "poison": 6520,
      "spare": 6521,
      "claire": 6522,
      "corpse": 6523,
      "believing": 6524,
      "portion": 6525,
      "racial": 6526,
      "response": 6527,
      "ggy": 6528,
      "mile": 6529,
      "reactions": 6530,
      "staged": 6531,
      "conserv": 6532,
      "afore": 6533,
      "killings": 6534,
      "insist": 6535,
      "embr": 6536,
      "persona": 6537,
      "breasts": 6538,
      "lawrence": 6539,
      "hibit": 6540,
      "bullet": 6541,
      "requires": 6542,
      "devast": 6543,
      "nazis": 6544,
      "motivation": 6545,
      "yellow": 6546,
      "hl": 6547,
      "kitch": 6548,
      "tel": 6549,
      "reject": 6550,
      "vig": 6551,
      "amanda": 6552,
      "holl": 6553,
      "aret": 6554,
      "supre": 6555,
      "activ": 6556,
      "pert": 6557,
      "conceived": 6558,
      "pulling": 6559,
      "spirited": 6560,
      "travels": 6561,
      "loosely": 6562,
      "krist": 6563,
      "distinct": 6564,
      "admittedly": 6565,
      "lang": 6566,
      "pau": 6567,
      "album": 6568,
      "lifest": 6569,
      "pleased": 6570,
      "quel": 6571,
      "hamlet": 6572,
      "1980s": 6573,
      "attracted": 6574,
      "andrew": 6575,
      "charismatic": 6576,
      "wag": 6577,
      "zed": 6578,
      "logue": 6579,
      "notes": 6580,
      "fla": 6581,
      "backdrop": 6582,
      "wonders": 6583,
      "stole": 6584,
      "farce": 6585,
      "parent": 6586,
      "explosions": 6587,
      "drops": 6588,
      "possibility": 6589,
      "beaten": 6590,
      "immig": 6591,
      "squad": 6592,
      "commercials": 6593,
      "sneak": 6594,
      "tremendous": 6595,
      "threw": 6596,
      "altogether": 6597,
      "asm": 6598,
      "lean": 6599,
      "omit": 6600,
      "lip": 6601,
      "heim": 6602,
      "watches": 6603,
      "vicious": 6604,
      "brilliance": 6605,
      "allowing": 6606,
      "angeles": 6607,
      "wrestling": 6608,
      "thumbs": 6609,
      "poverty": 6610,
      "''": 6611,
      "cried": 6612,
      "flee": 6613,
      "jet": 6614,
      "root": 6615,
      "precise": 6616,
      "characterization": 6617,
      "spider": 6618,
      "guin": 6619,
      "aft": 6620,
      "clues": 6621,
      "glenn": 6622,
      "yester": 6623,
      "credited": 6624,
      "politic": 6625,
      "pleasantly": 6626,
      "photographer": 6627,
      "demands": 6628,
      "doro": 6629,
      "specif": 6630,
      "ironically": 6631,
      "waters": 6632,
      "baker": 6633,
      "macy": 6634,
      "pants": 6635,
      "infect": 6636,
      "isation": 6637,
      "ingen": 6638,
      "oma": 6639,
      "unpleasant": 6640,
      "timeless": 6641,
      "realise": 6642,
      "reluct": 6643,
      "formed": 6644,
      "merit": 6645,
      "heroic": 6646,
      "gging": 6647,
      "madonna": 6648,
      "owen": 6649,
      "countless": 6650,
      "russia": 6651,
      "occurs": 6652,
      "associated": 6653,
      "adequate": 6654,
      "fired": 6655,
      "rist": 6656,
      "inser": 6657,
      "mansion": 6658,
      "eston": 6659,
      "serving": 6660,
      "huh": 6661,
      "reasonably": 6662,
      "superbly": 6663,
      "scientific": 6664,
      "blowing": 6665,
      "cellu": 6666,
      "throat": 6667,
      "daring": 6668,
      "hmm": 6669,
      "iation": 6670,
      "usions": 6671,
      "worn": 6672,
      "....<": 6673,
      "sail": 6674,
      "worlds": 6675,
      "brea": 6676,
      "snip": 6677,
      "instin": 6678,
      "mistress": 6679,
      "survival": 6680,
      "digital": 6681,
      "glasses": 6682,
      "dorothy": 6683,
      "celluloid": 6684,
      "35": 6685,
      "bam": 6686,
      "billi": 6687,
      "nun": 6688,
      "vine": 6689,
      "incoherent": 6690,
      "ingu": 6691,
      "orders": 6692,
      "ishes": 6693,
      "morality": 6694,
      "misses": 6695,
      "messages": 6696,
      "ranks": 6697,
      "idiots": 6698,
      "splatter": 6699,
      "threatening": 6700,
      "evident": 6701,
      "biography": 6702,
      "resolution": 6703,
      "documentaries": 6704,
      "spooky": 6705,
      "resort": 6706,
      "beats": 6707,
      "hoo": 6708,
      "excl": 6709,
      "blast": 6710,
      "interaction": 6711,
      "kings": 6712,
      "valley": 6713,
      "calm": 6714,
      "photographed": 6715,
      "detailed": 6716,
      "flawless": 6717,
      "strike": 6718,
      "pseudo": 6719,
      "continued": 6720,
      "surrounded": 6721,
      "elderly": 6722,
      "jeremy": 6723,
      "splendid": 6724,
      "rust": 6725,
      "tool": 6726,
      "adams": 6727,
      "terior": 6728,
      "dee": 6729,
      "ifying": 6730,
      "foc": 6731,
      "duke": 6732,
      "wallow": 6733,
      "styles": 6734,
      "generous": 6735,
      "thrills": 6736,
      "aimed": 6737,
      "sentence": 6738,
      "terrorist": 6739,
      "providing": 6740,
      "canada": 6741,
      "symbolism": 6742,
      "accomplished": 6743,
      "hysterical": 6744,
      "conspiracy": 6745,
      "titanic": 6746,
      "kh": 6747,
      "kay": 6748,
      "returned": 6749,
      "represents": 6750,
      "advance": 6751,
      "plague": 6752,
      "agan": 6753,
      "anyways": 6754,
      "mons": 6755,
      "emper": 6756,
      "attached": 6757,
      "2004": 6758,
      "builds": 6759,
      "fields": 6760,
      "walls": 6761,
      "tunes": 6762,
      "frustrated": 6763,
      "linda": 6764,
      "swedish": 6765,
      "subsequent": 6766,
      "currently": 6767,
      "ique": 6768,
      "rank": 6769,
      "wright": 6770,
      "zor": 6771,
      "webs": 6772,
      "cox": 6773,
      "pros": 6774,
      "willis": 6775,
      "ireland": 6776,
      "buried": 6777,
      "cared": 6778,
      "burg": 6779,
      "hanks": 6780,
      "panic": 6781,
      "segments": 6782,
      "argument": 6783,
      "constructed": 6784,
      "landscape": 6785,
      "awe": 6786,
      "bc": 6787,
      "nas": 6788,
      "ramp": 6789,
      "stare": 6790,
      "vich": 6791,
      "fears": 6792,
      "blues": 6793,
      "ensible": 6794,
      "worthless": 6795,
      "hypo": 6796,
      "rocks": 6797,
      "swing": 6798,
      "resour": 6799,
      "drown": 6800,
      "arrive": 6801,
      "escaped": 6802,
      "drunken": 6803,
      "hatred": 6804,
      "craig": 6805,
      "mour": 6806,
      "til": 6807,
      "bears": 6808,
      "areas": 6809,
      "neth": 6810,
      "grav": 6811,
      "displays": 6812,
      "raj": 6813,
      "attle": 6814,
      "wondered": 6815,
      "twin": 6816,
      "walken": 6817,
      "extended": 6818,
      "causing": 6819,
      "grandmother": 6820,
      "narrator": 6821,
      "1960": 6822,
      "strikes": 6823,
      "tortured": 6824,
      "achievement": 6825,
      "brando": 6826,
      "wannabe": 6827,
      "garden": 6828,
      "gift": 6829,
      "arrested": 6830,
      "jealous": 6831,
      "presumably": 6832,
      "'.<": 6833,
      "dating": 6834,
      "elo": 6835,
      "gall": 6836,
      "iter": 6837,
      "argen": 6838,
      "/>'": 6839,
      "outcome": 6840,
      "dian": 6841,
      "claude": 6842,
      "afterwards": 6843,
      "sulli": 6844,
      "swear": 6845,
      "frankie": 6846,
      "instit": 6847,
      "concerning": 6848,
      "respond": 6849,
      "meaningless": 6850,
      "prisoners": 6851,
      "gabr": 6852,
      "secretary": 6853,
      "depression": 6854,
      "pushed": 6855,
      "fingers": 6856,
      "liberal": 6857,
      "prostitute": 6858,
      "fonda": 6859,
      "jointed": 6860,
      "museum": 6861,
      "chances": 6862,
      "butch": 6863,
      "goodness": 6864,
      "disease": 6865,
      "...)": 6866,
      "carrey": 6867,
      "writes": 6868,
      "burned": 6869,
      "distance": 6870,
      "doubted": 6871,
      "nearby": 6872,
      "secrets": 6873,
      "angela": 6874,
      "contrary": 6875,
      "salv": 6876,
      "draws": 6877,
      "chaos": 6878,
      "receive": 6879,
      "stairs": 6880,
      "matthew": 6881,
      "sullivan": 6882,
      "anded": 6883,
      "omic": 6884,
      "funeral": 6885,
      "phony": 6886,
      "subjects": 6887,
      "university": 6888,
      "discussion": 6889,
      "resembles": 6890,
      "strictly": 6891,
      "exaggerated": 6892,
      "directorial": 6893,
      "egg": 6894,
      "ligh": 6895,
      "forgiven": 6896,
      "iments": 6897,
      "tracy": 6898,
      "worried": 6899,
      "tea": 6900,
      "inda": 6901,
      "carrie": 6902,
      "lucy": 6903,
      "streep": 6904,
      "stronger": 6905,
      "politically": 6906,
      "companion": 6907,
      "rabbit": 6908,
      "stooges": 6909,
      "childish": 6910,
      "cart": 6911,
      "eries": 6912,
      "revi": 6913,
      "stir": 6914,
      "goo": 6915,
      "projects": 6916,
      "spike": 6917,
      "disjointed": 6918,
      "blake": 6919,
      "menacing": 6920,
      "sadistic": 6921,
      "planning": 6922,
      "trained": 6923,
      "complaint": 6924,
      "loaded": 6925,
      "dill": 6926,
      "kil": 6927,
      "kish": 6928,
      "rural": 6929,
      "rex": 6930,
      "liar": 6931,
      "roe": 6932,
      "exposed": 6933,
      "bye": 6934,
      "idy": 6935,
      "carn": 6936,
      "syl": 6937,
      "dialogues": 6938,
      "promised": 6939,
      "signs": 6940,
      "anagh": 6941,
      "jewel": 6942,
      "cassave": 6943,
      "reflection": 6944,
      "warrior": 6945,
      "rubber": 6946,
      "obscure": 6947,
      "altman": 6948,
      "dere": 6949,
      "randy": 6950,
      "redi": 6951,
      "asia": 6952,
      "lyrics": 6953,
      "manhatt": 6954,
      "hardcore": 6955,
      "syno": 6956,
      "cusack": 6957,
      "promin": 6958,
      "cruise": 6959,
      "brains": 6960,
      "musc": 6961,
      "ruthless": 6962,
      "translation": 6963,
      "colonel": 6964,
      "kitchen": 6965,
      "cities": 6966,
      "flies": 6967,
      "lun": 6968,
      "rebe": 6969,
      "comics": 6970,
      "affl": 6971,
      "gian": 6972,
      "careers": 6973,
      "xture": 6974,
      "airplane": 6975,
      "ridiculously": 6976,
      "matched": 6977,
      "officers": 6978,
      "empire": 6979,
      "executive": 6980,
      "____": 6981,
      "superficial": 6982,
      "emperor": 6983,
      "argento": 6984,
      "cd": 6985,
      "fay": 6986,
      "rd": 6987,
      "unit": 6988,
      "wet": 6989,
      "offering": 6990,
      "march": 6991,
      "drivel": 6992,
      "2002": 6993,
      "rising": 6994,
      "campbell": 6995,
      "1990": 6996,
      "1999": 6997,
      "sales": 6998,
      "traveling": 6999,
      "dinosaurs": 7000,
      "juvenile": 7001,
      "iently": 7002,
      "rud": 7003,
      "ingredi": 7004,
      "icient": 7005,
      "terry": 7006,
      "implausible": 7007,
      "notably": 7008,
      "mario": 7009,
      "psis": 7010,
      "!!!!!": 7011,
      "tones": 7012,
      "planned": 7013,
      "unky": 7014,
      "zzy": 7015,
      "delivering": 7016,
      "furthermore": 7017,
      "recorded": 7018,
      "gradually": 7019,
      "scope": 7020,
      "\";": 7021,
      "cof": 7022,
      "gand": 7023,
      "xon": 7024,
      "rees": 7025,
      "devoid": 7026,
      "doz": 7027,
      "traff": 7028,
      "boll": 7029,
      "shining": 7030,
      "grain": 7031,
      "uded": 7032,
      "duo": 7033,
      "trio": 7034,
      "sounding": 7035,
      "twel": 7036,
      "lucas": 7037,
      "airport": 7038,
      "bathroom": 7039,
      "griffith": 7040,
      "cingly": 7041,
      "swi": 7042,
      "yr": 7043,
      "iser": 7044,
      "edly": 7045,
      "wives": 7046,
      "offended": 7047,
      "screams": 7048,
      "pretend": 7049,
      "kidding": 7050,
      "coln": 7051,
      "forms": 7052,
      "lincoln": 7053,
      "generic": 7054,
      "sadness": 7055,
      "ticket": 7056,
      "rifice": 7057,
      "hamil": 7058,
      "recognized": 7059,
      "defend": 7060,
      "washed": 7061,
      "sacrifice": 7062,
      "glorious": 7063,
      "involvement": 7064,
      "rio": 7065,
      "comb": 7066,
      "agents": 7067,
      "groups": 7068,
      "staying": 7069,
      "royal": 7070,
      "prisoner": 7071,
      "primarily": 7072,
      "sandler": 7073,
      "popcorn": 7074,
      "influenced": 7075,
      "newspaper": 7076,
      "bent": 7077,
      "cards": 7078,
      "gimm": 7079,
      "oke": 7080,
      "asion": 7081,
      "brig": 7082,
      "height": 7083,
      "unwatchable": 7084,
      "scot": 7085,
      "urbed": 7086,
      "overlooked": 7087,
      "blur": 7088,
      "blend": 7089,
      "rail": 7090,
      "producing": 7091,
      "gerald": 7092,
      "davies": 7093,
      "miy": 7094,
      "disturbed": 7095,
      "tracks": 7096,
      "explored": 7097,
      "judging": 7098,
      "improved": 7099,
      "conversations": 7100,
      "stinker": 7101,
      "corporate": 7102,
      "models": 7103,
      "isolated": 7104,
      "installment": 7105,
      "manhattan": 7106,
      "bates": 7107,
      "branagh": 7108,
      "holo": 7109,
      "convol": 7110,
      "bub": 7111,
      "bene": 7112,
      "convincingly": 7113,
      "population": 7114,
      "reached": 7115,
      "removed": 7116,
      "investigate": 7117,
      "rendition": 7118,
      "quinn": 7119,
      "aforementioned": 7120,
      "derek": 7121,
      "synopsis": 7122,
      "50s": 7123,
      "gad": 7124,
      "leo": 7125,
      "vie": 7126,
      "vian": 7127,
      "nee": 7128,
      "odds": 7129,
      "grass": 7130,
      "wells": 7131,
      "pran": 7132,
      "martha": 7133,
      "differences": 7134,
      "morrow": 7135,
      "secondly": 7136,
      "explore": 7137,
      "retro": 7138,
      "slightest": 7139,
      "loads": 7140,
      "sacrific": 7141,
      "philosophy": 7142,
      "kn": 7143,
      "wine": 7144,
      "lips": 7145,
      "suited": 7146,
      "measure": 7147,
      "temple": 7148,
      "2007": 7149,
      "laws": 7150,
      "lected": 7151,
      "crystal": 7152,
      "psychotic": 7153,
      "require": 7154,
      "transport": 7155,
      "abysm": 7156,
      "undoubted": 7157,
      "abc": 7158,
      "goers": 7159,
      "oding": 7160,
      "agreed": 7161,
      "justin": 7162,
      "backs": 7163,
      "1930": 7164,
      "closet": 7165,
      "hyp": 7166,
      "annie": 7167,
      "genres": 7168,
      "2003": 7169,
      "bullets": 7170,
      "recognition": 7171,
      "dedicated": 7172,
      "mesmer": 7173,
      "subtlety": 7174,
      "square": 7175,
      "proceedings": 7176,
      "diamond": 7177,
      "fetched": 7178,
      "yesterday": 7179,
      "\"-": 7180,
      "vous": 7181,
      "inhabit": 7182,
      "resur": 7183,
      "assem": 7184,
      "icy": 7185,
      "filling": 7186,
      "defe": 7187,
      "estate": 7188,
      "artific": 7189,
      "basket": 7190,
      "chron": 7191,
      "harder": 7192,
      "compli": 7193,
      "roller": 7194,
      "movements": 7195,
      "devoted": 7196,
      "decisions": 7197,
      "robbery": 7198,
      "gimmick": 7199,
      "90s": 7200,
      "fia": 7201,
      "glow": 7202,
      "ranger": 7203,
      "wagon": 7204,
      "yn": 7205,
      "adul": 7206,
      "util": 7207,
      "unbelievably": 7208,
      "keeper": 7209,
      "poll": 7210,
      "trum": 7211,
      "uristic": 7212,
      "persu": 7213,
      "overdone": 7214,
      "tooth": 7215,
      "veness": 7216,
      "humili": 7217,
      "sidekick": 7218,
      "mixture": 7219,
      "explosion": 7220,
      "scores": 7221,
      "limits": 7222,
      "cinematographer": 7223,
      "intrigue": 7224,
      "occurred": 7225,
      "collabor": 7226,
      "eighties": 7227,
      "distracting": 7228,
      "sloppy": 7229,
      "construction": 7230,
      "benefit": 7231,
      "poetry": 7232,
      "specifically": 7233,
      "foul": 7234,
      "houses": 7235,
      "ril": 7236,
      "unbearable": 7237,
      "gol": 7238,
      "mafia": 7239,
      "istically": 7240,
      "wore": 7241,
      "serge": 7242,
      "giallo": 7243,
      "simil": 7244,
      "turner": 7245,
      "observ": 7246,
      "earned": 7247,
      "murderous": 7248,
      "pays": 7249,
      "opinions": 7250,
      "instant": 7251,
      "imagined": 7252,
      "winds": 7253,
      "suitable": 7254,
      "intrigued": 7255,
      "doomed": 7256,
      "dignity": 7257,
      "coffee": 7258,
      "tank": 7259,
      "yawn": 7260,
      "enchant": 7261,
      "ghan": 7262,
      "decor": 7263,
      "decess": 7264,
      "solo": 7265,
      "scoo": 7266,
      "preview": 7267,
      "predecess": 7268,
      "wont": 7269,
      "highest": 7270,
      "classical": 7271,
      "collect": 7272,
      "stereotype": 7273,
      "answered": 7274,
      "lifting": 7275,
      "errors": 7276,
      "adoles": 7277,
      "elaborate": 7278,
      "grot": 7279,
      "kris": 7280,
      "isha": 7281,
      "aspir": 7282,
      "ilted": 7283,
      "aman": 7284,
      "iran": 7285,
      "pee": 7286,
      "uster": 7287,
      "empath": 7288,
      "temper": 7289,
      "failing": 7290,
      "distingu": 7291,
      "damage": 7292,
      "explaining": 7293,
      "contained": 7294,
      "kurt": 7295,
      "absence": 7296,
      "bie": 7297,
      "gid": 7298,
      "juni": 7299,
      "relies": 7300,
      "encing": 7301,
      "anders": 7302,
      "lime": 7303,
      "acknow": 7304,
      "partly": 7305,
      "stark": 7306,
      "motives": 7307,
      "buddies": 7308,
      "regul": 7309,
      "defined": 7310,
      "oses": 7311,
      "suspicious": 7312,
      "pushing": 7313,
      "inventive": 7314,
      "settling": 7315,
      "alternative": 7316,
      "divorce": 7317,
      "clumsy": 7318,
      "lifestyle": 7319,
      "beneath": 7320,
      "similarly": 7321,
      "fisher": 7322,
      "jol": 7323,
      "consu": 7324,
      "guitar": 7325,
      "strang": 7326,
      "clothing": 7327,
      "eastern": 7328,
      "damme": 7329,
      "commented": 7330,
      "nicole": 7331,
      "principal": 7332,
      "convoluted": 7333,
      "bite": 7334,
      "wend": 7335,
      "zing": 7336,
      "ala": 7337,
      "alfred": 7338,
      "whis": 7339,
      "imperson": 7340,
      "robe": 7341,
      "elic": 7342,
      "neo": 7343,
      "aggress": 7344,
      "ptic": 7345,
      "centered": 7346,
      "pressure": 7347,
      "cameras": 7348,
      "legit": 7349,
      "archite": 7350,
      "honesty": 7351,
      "elimin": 7352,
      "montage": 7353,
      "frustrating": 7354,
      "leonard": 7355,
      "captivating": 7356,
      "phrase": 7357,
      "arrogant": 7358,
      "honey": 7359,
      "kum": 7360,
      "recru": 7361,
      "stellar": 7362,
      "icon": 7363,
      "unintentional": 7364,
      "marion": 7365,
      "species": 7366,
      "thoughtful": 7367,
      "nail": 7368,
      "darker": 7369,
      "parallel": 7370,
      "simplistic": 7371,
      "aar": 7372,
      "rational": 7373,
      "enem": 7374,
      "itudes": 7375,
      "illegal": 7376,
      "bearing": 7377,
      "wid": 7378,
      "composed": 7379,
      "eves": 7380,
      "cope": 7381,
      "ruins": 7382,
      "painted": 7383,
      "existed": 7384,
      "reaches": 7385,
      "chicken": 7386,
      "reduced": 7387,
      "atlant": 7388,
      "junior": 7389,
      "enemies": 7390,
      "lic": 7391,
      "reunion": 7392,
      "sele": 7393,
      "versus": 7394,
      "meg": 7395,
      "flag": 7396,
      "performer": 7397,
      "pax": 7398,
      "bargain": 7399,
      "towns": 7400,
      "sweep": 7401,
      "historic": 7402,
      "consistently": 7403,
      "depressed": 7404,
      "eaten": 7405,
      "pearl": 7406,
      "bass": 7407,
      "cag": 7408,
      "eff": 7409,
      "mason": 7410,
      "leck": 7411,
      "roof": 7412,
      "neu": 7413,
      "strangers": 7414,
      "menace": 7415,
      "curtis": 7416,
      "copies": 7417,
      "primary": 7418,
      "terrorists": 7419,
      "psychopath": 7420,
      "global": 7421,
      "candid": 7422,
      "blatant": 7423,
      "enormous": 7424,
      "twelve": 7425,
      "kor": 7426,
      "pony": 7427,
      "arc": 7428,
      "fever": 7429,
      "fru": 7430,
      "shor": 7431,
      "characteristic": 7432,
      "despair": 7433,
      "taker": 7434,
      "runner": 7435,
      "aneously": 7436,
      "casual": 7437,
      "trees": 7438,
      "photograph": 7439,
      "delicious": 7440,
      "cruci": 7441,
      "hollow": 7442,
      "catches": 7443,
      "glover": 7444,
      "education": 7445,
      "dutch": 7446,
      "innovative": 7447,
      "undoubtedly": 7448,
      "ears": 7449,
      "echo": 7450,
      "gom": 7451,
      "vegas": 7452,
      "lix": 7453,
      "notion": 7454,
      "agrees": 7455,
      "sheen": 7456,
      "oph": 7457,
      "smaller": 7458,
      "fantas": 7459,
      "????": 7460,
      "buildings": 7461,
      "introduces": 7462,
      "describes": 7463,
      "contract": 7464,
      "nightmares": 7465,
      "choreography": 7466,
      "comparing": 7467,
      "incest": 7468,
      ",,": 7469,
      "mtv": 7470,
      "tame": 7471,
      "anor": 7472,
      "rec": 7473,
      "uneven": 7474,
      "exotic": 7475,
      "ellen": 7476,
      "fried": 7477,
      "barney": 7478,
      "solution": 7479,
      "shake": 7480,
      "treats": 7481,
      "equip": 7482,
      "circle": 7483,
      "punishment": 7484,
      "shelf": 7485,
      "frequent": 7486,
      "scheme": 7487,
      "miserable": 7488,
      "unfolds": 7489,
      "emphasis": 7490,
      "bottle": 7491,
      "journalist": 7492,
      "immensely": 7493,
      "seventies": 7494,
      "hamilton": 7495,
      "cun": 7496,
      "iveness": 7497,
      "thet": 7498,
      "assum": 7499,
      "seed": 7500,
      "mod": 7501,
      "vell": 7502,
      "troma": 7503,
      "estic": 7504,
      "plate": 7505,
      "shay": 7506,
      "raid": 7507,
      "settle": 7508,
      "homeless": 7509,
      "1940": 7510,
      "responsibility": 7511,
      "practice": 7512,
      "collap": 7513,
      "jacob": 7514,
      "revolutionary": 7515,
      "psychiatrist": 7516,
      "accompanied": 7517,
      "opp": 7518,
      "rag": 7519,
      "sung": 7520,
      "elvis": 7521,
      "compo": 7522,
      "coat": 7523,
      "props": 7524,
      "wrapped": 7525,
      "patric": 7526,
      "scarlett": 7527,
      "countryside": 7528,
      "fooled": 7529,
      "shirley": 7530,
      "dolph": 7531,
      "dynamic": 7532,
      "poetic": 7533,
      "hates": 7534,
      "lur": 7535,
      "ancy": 7536,
      "ental": 7537,
      "quent": 7538,
      "cheating": 7539,
      "steel": 7540,
      "cliche": 7541,
      "namely": 7542,
      "garbo": 7543,
      "depicts": 7544,
      "gangsters": 7545,
      "profession": 7546,
      "recording": 7547,
      "drawing": 7548,
      "succeeded": 7549,
      "solely": 7550,
      "financial": 7551,
      "margaret": 7552,
      "helicopter": 7553,
      "focusing": 7554,
      "cagney": 7555,
      "')": 7556,
      "3rd": 7557,
      "kas": 7558,
      "isand": 7559,
      "ata": 7560,
      "aristo": 7561,
      "lifel": 7562,
      "defeat": 7563,
      "pete": 7564,
      "illness": 7565,
      "excruci": 7566,
      "aux": 7567,
      "indic": 7568,
      "parad": 7569,
      "tribe": 7570,
      "classes": 7571,
      "tonight": 7572,
      "luc": 7573,
      "exploit": 7574,
      "1995": 7575,
      "kicked": 7576,
      "amounts": 7577,
      "historically": 7578,
      "witnessed": 7579,
      "employe": 7580,
      "incidentally": 7581,
      "astron": 7582,
      "dentist": 7583,
      "cassavetes": 7584,
      "dozens": 7585,
      "excruciating": 7586,
      "gere": 7587,
      "imo": 7588,
      "ibly": 7589,
      "lers": 7590,
      "uable": 7591,
      "xter": 7592,
      "repul": 7593,
      "encour": 7594,
      "asto": 7595,
      "edgar": 7596,
      "forty": 7597,
      "het": 7598,
      "lotte": 7599,
      "blond": 7600,
      "promises": 7601,
      "crucial": 7602,
      "communist": 7603,
      "discuss": 7604,
      "mountains": 7605,
      "wealth": 7606,
      "florida": 7607,
      "philosophical": 7608,
      "equipment": 7609,
      "..<": 7610,
      "daddy": 7611,
      "hou": 7612,
      "sway": 7613,
      "incompreh": 7614,
      "rocket": 7615,
      "keith": 7616,
      "pops": 7617,
      "arty": 7618,
      "prepar": 7619,
      "bleed": 7620,
      "cream": 7621,
      "horrifying": 7622,
      "boris": 7623,
      "addict": 7624,
      "barrel": 7625,
      "endings": 7626,
      "hyper": 7627,
      "caust": 7628,
      "nik": 7629,
      "streisand": 7630,
      "purchase": 7631,
      "bonus": 7632,
      "employed": 7633,
      "karloff": 7634,
      "rants": 7635,
      "leth": 7636,
      "unoriginal": 7637,
      "kett": 7638,
      "feast": 7639,
      "overrated": 7640,
      "gib": 7641,
      "mayor": 7642,
      "mentioning": 7643,
      "confident": 7644,
      "similarities": 7645,
      "teaching": 7646,
      "trailers": 7647,
      "rotten": 7648,
      "bones": 7649,
      "inane": 7650,
      "advise": 7651,
      "verted": 7652,
      "imper": 7653,
      "boob": 7654,
      "spon": 7655,
      "blew": 7656,
      "servant": 7657,
      "harvey": 7658,
      "slave": 7659,
      "hench": 7660,
      "stevens": 7661,
      "gentleman": 7662,
      "deliberately": 7663,
      "gabriel": 7664,
      "custer": 7665,
      "kaz": 7666,
      "ule": 7667,
      "nov": 7668,
      "ello": 7669,
      "urge": 7670,
      "perry": 7671,
      "charlotte": 7672,
      "pric": 7673,
      "optim": 7674,
      "subplots": 7675,
      "doug": 7676,
      "considerable": 7677,
      "facing": 7678,
      "hilariously": 7679,
      "developing": 7680,
      "hideous": 7681,
      "francisco": 7682,
      "borrowed": 7683,
      "bronson": 7684,
      "survivors": 7685,
      "abysmal": 7686,
      "gon": 7687,
      "chop": 7688,
      "lift": 7689,
      "amuse": 7690,
      "absent": 7691,
      "dod": 7692,
      "cot": 7693,
      "preced": 7694,
      "justify": 7695,
      "downhill": 7696,
      "pretending": 7697,
      "nervous": 7698,
      "capturing": 7699,
      "chronic": 7700,
      "boxing": 7701,
      "1972": 7702,
      "homic": 7703,
      "survived": 7704,
      "potentially": 7705,
      "transformation": 7706,
      "nicholson": 7707,
      "miyaz": 7708,
      "mand": 7709,
      "nt": 7710,
      "incompetent": 7711,
      "retain": 7712,
      "acious": 7713,
      "vial": 7714,
      "drain": 7715,
      "heading": 7716,
      "useful": 7717,
      "creativity": 7718,
      "masterful": 7719,
      "confid": 7720,
      "natal": 7721,
      "flop": 7722,
      "campa": 7723,
      "adorable": 7724,
      "nostalgia": 7725,
      "website": 7726,
      "architect": 7727,
      "22": 7728,
      "nuts": 7729,
      "taught": 7730,
      "uh": 7731,
      "edition": 7732,
      "stilted": 7733,
      "icion": 7734,
      "mankind": 7735,
      "este": 7736,
      "graham": 7737,
      "izations": 7738,
      "cheated": 7739,
      "enjoys": 7740,
      "helpless": 7741,
      "nathan": 7742,
      "waves": 7743,
      "luci": 7744,
      "melan": 7745,
      "immort": 7746,
      "jeffrey": 7747,
      "resemblance": 7748,
      "robinson": 7749,
      "puppets": 7750,
      "transc": 7751,
      "bom": 7752,
      "sits": 7753,
      "recycl": 7754,
      "asing": 7755,
      "soc": 7756,
      "astro": 7757,
      "joined": 7758,
      "tyler": 7759,
      "displayed": 7760,
      "disappeared": 7761,
      "directs": 7762,
      "izable": 7763,
      "relations": 7764,
      "careful": 7765,
      "slum": 7766,
      "generated": 7767,
      "boarding": 7768,
      "falk": 7769,
      "correctly": 7770,
      "jesse": 7771,
      "buffs": 7772,
      "resolved": 7773,
      "wounded": 7774,
      "overwhelming": 7775,
      "ponder": 7776,
      "baldwin": 7777,
      "quisite": 7778,
      "forbidden": 7779,
      "aes": 7780,
      "dil": 7781,
      "och": 7782,
      "static": 7783,
      "exchange": 7784,
      "conqu": 7785,
      "cos": 7786,
      "monot": 7787,
      "staring": 7788,
      "glamor": 7789,
      "norris": 7790,
      "skate": 7791,
      "couples": 7792,
      "covering": 7793,
      "dys": 7794,
      "planes": 7795,
      "dolls": 7796,
      "channels": 7797,
      "defense": 7798,
      "1930s": 7799,
      "brutally": 7800,
      "13th": 7801,
      "bridges": 7802,
      "safety": 7803,
      "lemmon": 7804,
      "patients": 7805,
      "priceless": 7806,
      "caut": 7807,
      "gers": 7808,
      "rang": 7809,
      "tends": 7810,
      "tiger": 7811,
      "thread": 7812,
      "wig": 7813,
      "quaid": 7814,
      "igner": 7815,
      "grudge": 7816,
      "fundam": 7817,
      "understated": 7818,
      "alongside": 7819,
      "compens": 7820,
      "rocky": 7821,
      "suggested": 7822,
      "arrived": 7823,
      "jews": 7824,
      "pitiful": 7825,
      "climactic": 7826,
      "advertising": 7827,
      "jaws": 7828,
      "mall": 7829,
      "republic": 7830,
      "chip": 7831,
      "nod": 7832,
      "vibr": 7833,
      "parties": 7834,
      "commander": 7835,
      "jordan": 7836,
      "schlock": 7837,
      "matches": 7838,
      "fluff": 7839,
      "vengeance": 7840,
      "crocod": 7841,
      "itors": 7842,
      "vulgar": 7843,
      "fought": 7844,
      "kers": 7845,
      "yelling": 7846,
      "inse": 7847,
      "topless": 7848,
      "stall": 7849,
      "sep": 7850,
      "ela": 7851,
      "felix": 7852,
      "coward": 7853,
      "cannon": 7854,
      "marked": 7855,
      "carrad": 7856,
      "steam": 7857,
      "warren": 7858,
      "logically": 7859,
      "futuristic": 7860,
      "faster": 7861,
      "contrad": 7862,
      "circus": 7863,
      "nomination": 7864,
      "progresses": 7865,
      "formulaic": 7866,
      "swimming": 7867,
      "phillip": 7868,
      "marketing": 7869,
      "chamber": 7870,
      "riveting": 7871,
      "ae": 7872,
      "gel": 7873,
      "ological": 7874,
      "sappy": 7875,
      "swallow": 7876,
      "tier": 7877,
      "alley": 7878,
      "acies": 7879,
      "iring": 7880,
      "irrelevant": 7881,
      "illusion": 7882,
      "visiting": 7883,
      "voiced": 7884,
      "polar": 7885,
      "lacklust": 7886,
      "destiny": 7887,
      "floating": 7888,
      "ritual": 7889,
      "trashy": 7890,
      "pix": 7891,
      "citizens": 7892,
      "huston": 7893,
      "apocalypse": 7894,
      "guided": 7895,
      "hut": 7896,
      "pom": 7897,
      "rice": 7898,
      "smar": 7899,
      "tact": 7900,
      "thugs": 7901,
      "inf": 7902,
      "stard": 7903,
      "clou": 7904,
      "underlying": 7905,
      "obtain": 7906,
      "elephant": 7907,
      "garner": 7908,
      "guessed": 7909,
      "banned": 7910,
      "accuracy": 7911,
      "rupted": 7912,
      "enterprise": 7913,
      "ethnic": 7914,
      "mobile": 7915,
      "elegant": 7916,
      "ingredients": 7917,
      "carradine": 7918,
      "tered": 7919,
      "fet": 7920,
      "seeks": 7921,
      "grasp": 7922,
      "spain": 7923,
      "guests": 7924,
      "offs": 7925,
      "simult": 7926,
      "visions": 7927,
      "corman": 7928,
      "conditions": 7929,
      "twins": 7930,
      "harold": 7931,
      "superhero": 7932,
      "prize": 7933,
      "wished": 7934,
      "operation": 7935,
      "spacey": 7936,
      "sensu": 7937,
      "possibilities": 7938,
      "karate": 7939,
      "remarkably": 7940,
      "timo": 7941,
      "appropriately": 7942,
      "celebrity": 7943,
      "stinks": 7944,
      "combine": 7945,
      "artificial": 7946,
      "scooby": 7947,
      "grotesque": 7948,
      "miyazaki": 7949,
      "\"!": 7950,
      "lately": 7951,
      "illogical": 7952,
      "moody": 7953,
      "amid": 7954,
      "connor": 7955,
      "cancel": 7956,
      "guards": 7957,
      "awake": 7958,
      "disappear": 7959,
      "laughably": 7960,
      "understandable": 7961,
      "engross": 7962,
      "spirits": 7963,
      "sleaze": 7964,
      "latin": 7965,
      "cleverly": 7966,
      "wolves": 7967,
      "1968": 7968,
      "crossing": 7969,
      "foolish": 7970,
      "tourist": 7971,
      "corruption": 7972,
      "intimate": 7973,
      "inferior": 7974,
      "conservative": 7975,
      "hypnot": 7976,
      "legitim": 7977,
      "campaign": 7978,
      "hank": 7979,
      "arian": 7980,
      "leigh": 7981,
      "rier": 7982,
      "endure": 7983,
      "artic": 7984,
      "akin": 7985,
      "descent": 7986,
      "desired": 7987,
      "newly": 7988,
      "attitudes": 7989,
      "rude": 7990,
      "pattern": 7991,
      "biased": 7992,
      "damned": 7993,
      "dressing": 7994,
      "senses": 7995,
      "embarrassment": 7996,
      "flir": 7997,
      "watson": 7998,
      "chainsaw": 7999,
      "premiere": 8000,
      "june": 8001,
      "guarantee": 8002,
      "supreme": 8003,
      "(..": 8004,
      "3000": 8005,
      "daw": 8006,
      "nons": 8007,
      "enlight": 8008,
      "ilight": 8009,
      "behave": 8010,
      "deaf": 8011,
      "roth": 8012,
      "sue": 8013,
      "sustain": 8014,
      "expo": 8015,
      "august": 8016,
      "showcase": 8017,
      "awak": 8018,
      "cler": 8019,
      "peoples": 8020,
      "twilight": 8021,
      "dances": 8022,
      "garfield": 8023,
      "weakest": 8024,
      "equival": 8025,
      "catching": 8026,
      "regarded": 8027,
      "gloss": 8028,
      "chapter": 8029,
      "frustration": 8030,
      "experimental": 8031,
      "challenging": 8032,
      "iraq": 8033,
      "functional": 8034,
      "crawford": 8035,
      "spread": 8036,
      "adolescent": 8037,
      ",<": 8038,
      "cens": 8039,
      "dile": 8040,
      "dump": 8041,
      "hatch": 8042,
      "kent": 8043,
      "mam": 8044,
      "sg": 8045,
      "infl": 8046,
      "react": 8047,
      "alert": 8048,
      "wides": 8049,
      "whats": 8050,
      "spag": 8051,
      "berry": 8052,
      "marshall": 8053,
      "turkish": 8054,
      "obli": 8055,
      "dancers": 8056,
      "ridge": 8057,
      "gym": 8058,
      "drif": 8059,
      "mysteries": 8060,
      "leather": 8061,
      "samura": 8062,
      "respected": 8063,
      "1996": 8064,
      "backgrounds": 8065,
      "discovering": 8066,
      "arguably": 8067,
      "kidnap": 8068,
      "proceeds": 8069,
      "nostalgic": 8070,
      "democr": 8071,
      "wacky": 8072,
      "aaron": 8073,
      "composer": 8074,
      "cue": 8075,
      "mim": 8076,
      "rer": 8077,
      "yell": 8078,
      "resto": 8079,
      "represented": 8080,
      "exceed": 8081,
      "condem": 8082,
      "hash": 8083,
      "lowest": 8084,
      "tripe": 8085,
      "nerd": 8086,
      "ridden": 8087,
      "skull": 8088,
      "engers": 8089,
      "dylan": 8090,
      "wishing": 8091,
      "hunters": 8092,
      "judg": 8093,
      "dropping": 8094,
      "1979": 8095,
      "avoided": 8096,
      "1960s": 8097,
      "dimension": 8098,
      "substit": 8099,
      "behaviour": 8100,
      "educated": 8101,
      "motivations": 8102,
      "antonio": 8103,
      "assault": 8104,
      "timothy": 8105,
      "cg": 8106,
      "eis": 8107,
      "lil": 8108,
      "acle": 8109,
      "wire": 8110,
      "keen": 8111,
      "butler": 8112,
      "outfit": 8113,
      "poke": 8114,
      "idal": 8115,
      "cron": 8116,
      "faults": 8117,
      "newman": 8118,
      "kingdom": 8119,
      "persons": 8120,
      "invasion": 8121,
      "clos": 8122,
      "niro": 8123,
      "lav": 8124,
      "bands": 8125,
      "bbie": 8126,
      "marty": 8127,
      "desperation": 8128,
      "beliefs": 8129,
      "virginia": 8130,
      "ignorant": 8131,
      "demanding": 8132,
      "wandering": 8133,
      "prejudice": 8134,
      "holocaust": 8135,
      "hints": 8136,
      "oy": 8137,
      "wt": 8138,
      "tower": 8139,
      "tomorrow": 8140,
      "acid": 8141,
      "unsettling": 8142,
      "ros": 8143,
      "abort": 8144,
      "apt": 8145,
      "weather": 8146,
      "essa": 8147,
      "agues": 8148,
      "grind": 8149,
      "umin": 8150,
      "pron": 8151,
      "donna": 8152,
      "mato": 8153,
      "newcom": 8154,
      "rave": 8155,
      "checked": 8156,
      "fires": 8157,
      "literature": 8158,
      "remained": 8159,
      "warmth": 8160,
      "ensues": 8161,
      "closest": 8162,
      ")...": 8163,
      "nom": 8164,
      "pid": 8165,
      "rack": 8166,
      "online": 8167,
      "fem": 8168,
      "exquisite": 8169,
      "quotes": 8170,
      "astically": 8171,
      "crum": 8172,
      "craven": 8173,
      "overacting": 8174,
      "thru": 8175,
      "colin": 8176,
      "spock": 8177,
      "landing": 8178,
      "cube": 8179,
      "vince": 8180,
      "passable": 8181,
      "travest": 8182,
      "xties": 8183,
      "purposes": 8184,
      "sixties": 8185,
      "senseless": 8186,
      "kyle": 8187,
      "plicity": 8188,
      "surviving": 8189,
      "popularity": 8190,
      "arrival": 8191,
      "hesit": 8192,
      "vulnerable": 8193,
      "awhile": 8194,
      "bread": 8195,
      "pson": 8196,
      "pals": 8197,
      "vas": 8198,
      "wrench": 8199,
      "inappropriate": 8200,
      "encies": 8201,
      "bris": 8202,
      "conrad": 8203,
      "prey": 8204,
      "cancer": 8205,
      "joel": 8206,
      "greatness": 8207,
      "realizing": 8208,
      "creator": 8209,
      "waited": 8210,
      "depicting": 8211,
      "authority": 8212,
      "cracking": 8213,
      "www": 8214,
      "educational": 8215,
      "challenged": 8216,
      "muppet": 8217,
      "saga": 8218,
      "patricia": 8219,
      "eats": 8220,
      "ernest": 8221,
      "enh": 8222,
      "stable": 8223,
      "whit": 8224,
      "ghou": 8225,
      "unreal": 8226,
      "unhappy": 8227,
      "eliness": 8228,
      "geek": 8229,
      "peters": 8230,
      "ulate": 8231,
      "urity": 8232,
      "quit": 8233,
      "myers": 8234,
      "viewings": 8235,
      "nyc": 8236,
      "underworld": 8237,
      "!!<": 8238,
      "!!!<": 8239,
      "smiling": 8240,
      "controlled": 8241,
      "gery": 8242,
      "valuable": 8243,
      "nails": 8244,
      "spoke": 8245,
      "meryl": 8246,
      "sla": 8247,
      "casts": 8248,
      "summar": 8249,
      "ordered": 8250,
      "introduce": 8251,
      "thompson": 8252,
      "civilization": 8253,
      "bumbling": 8254,
      "robots": 8255,
      "indulgent": 8256,
      "hippie": 8257,
      "sill": 8258,
      "uity": 8259,
      "chen": 8260,
      "implic": 8261,
      "kell": 8262,
      "compet": 8263,
      "scand": 8264,
      "manu": 8265,
      "tee": 8266,
      "misery": 8267,
      "carmen": 8268,
      "performs": 8269,
      "columb": 8270,
      "satir": 8271,
      "bedroom": 8272,
      "distress": 8273,
      "maggie": 8274,
      "greed": 8275,
      "balanced": 8276,
      "hungry": 8277,
      "sweat": 8278,
      "sched": 8279,
      "questionable": 8280,
      "austro": 8281,
      "kicking": 8282,
      "aids": 8283,
      "recognizable": 8284,
      "choreographed": 8285,
      "enthusiasm": 8286,
      "vaguely": 8287,
      "shameless": 8288,
      "phantom": 8289,
      "exposure": 8290,
      "samurai": 8291,
      "23": 8292,
      "cary": 8293,
      "nell": 8294,
      "toys": 8295,
      "stack": 8296,
      "roc": 8297,
      "rope": 8298,
      "geo": 8299,
      "grate": 8300,
      "blunt": 8301,
      "drill": 8302,
      "relatives": 8303,
      "elect": 8304,
      "lux": 8305,
      "symbo": 8306,
      "1983": 8307,
      "1997": 8308,
      "austin": 8309,
      "reaching": 8310,
      "foxx": 8311,
      "wisdom": 8312,
      "minimum": 8313,
      "rhyth": 8314,
      "bernard": 8315,
      "holland": 8316,
      "cunning": 8317,
      "soccer": 8318,
      "spaghett": 8319,
      "95": 8320,
      ":-": 8321,
      "sas": 8322,
      "revers": 8323,
      "leans": 8324,
      "unfair": 8325,
      "diana": 8326,
      "plat": 8327,
      "provoc": 8328,
      "moreover": 8329,
      "claustro": 8330,
      "blings": 8331,
      "venice": 8332,
      "smack": 8333,
      "odys": 8334,
      "lasting": 8335,
      "clip": 8336,
      "secondary": 8337,
      "purchased": 8338,
      "bullock": 8339,
      "asylum": 8340,
      "joey": 8341,
      "psychic": 8342,
      "chicks": 8343,
      "affairs": 8344,
      "gifted": 8345,
      "cigare": 8346,
      "equivalent": 8347,
      "claustropho": 8348,
      "coff": 8349,
      "ox": 8350,
      "pad": 8351,
      "vit": 8352,
      "zilla": 8353,
      "andro": 8354,
      "nolan": 8355,
      "wizard": 8356,
      "dell": 8357,
      "hokey": 8358,
      "dose": 8359,
      "april": 8360,
      "consequ": 8361,
      "likewise": 8362,
      "strings": 8363,
      "creen": 8364,
      "invited": 8365,
      "musicians": 8366,
      "pola": 8367,
      "dreary": 8368,
      "resulting": 8369,
      "refu": 8370,
      "signed": 8371,
      "appreciation": 8372,
      "loneliness": 8373,
      "ritter": 8374,
      "adaptations": 8375,
      "detect": 8376,
      "exceptionally": 8377,
      "slip": 8378,
      "narrow": 8379,
      "paranoia": 8380,
      "traffic": 8381,
      "widmark": 8382,
      "selection": 8383,
      "incomprehensible": 8384,
      "dall": 8385,
      "mute": 8386,
      "nause": 8387,
      "oured": 8388,
      "edgy": 8389,
      "seld": 8390,
      "bever": 8391,
      "elvi": 8392,
      "ids": 8393,
      "evok": 8394,
      "wrap": 8395,
      "idel": 8396,
      "surfing": 8397,
      "comedians": 8398,
      "visits": 8399,
      "cuba": 8400,
      "romero": 8401,
      "christie": 8402,
      "hung": 8403,
      "flood": 8404,
      "babe": 8405,
      "doctors": 8406,
      "teaches": 8407,
      "hurts": 8408,
      "testament": 8409,
      "minister": 8410,
      "troops": 8411,
      "monkeys": 8412,
      "integrity": 8413,
      "patience": 8414,
      "taxi": 8415,
      "tiresome": 8416,
      "kitty": 8417,
      "lily": 8418,
      "mber": 8419,
      "theart": 8420,
      "loren": 8421,
      "antagon": 8422,
      "transition": 8423,
      "zeal": 8424,
      "concern": 8425,
      "expressed": 8426,
      "dresses": 8427,
      "banks": 8428,
      "salman": 8429,
      "dirt": 8430,
      "complaining": 8431,
      "assuming": 8432,
      "nicholas": 8433,
      "rendered": 8434,
      "analysis": 8435,
      "activities": 8436,
      "natalie": 8437,
      "pard": 8438,
      "pale": 8439,
      "wen": 8440,
      "encourage": 8441,
      "assure": 8442,
      "chess": 8443,
      "forcing": 8444,
      "pole": 8445,
      "agenda": 8446,
      "showdown": 8447,
      "disgrace": 8448,
      "blan": 8449,
      "19th": 8450,
      "shoulder": 8451,
      "reader": 8452,
      "letters": 8453,
      "hello": 8454,
      "household": 8455,
      "drey": 8456,
      "homer": 8457,
      "machines": 8458,
      "raymond": 8459,
      "sensational": 8460,
      "experiments": 8461,
      "scottish": 8462,
      "astonishing": 8463,
      "astronaut": 8464,
      "travesty": 8465,
      "spaghetti": 8466,
      ".(": 8467,
      "mack": 8468,
      "uated": 8469,
      "tops": 8470,
      "orange": 8471,
      "molly": 8472,
      "undeni": 8473,
      "files": 8474,
      "rochester": 8475,
      "haust": 8476,
      "gos": 8477,
      "poem": 8478,
      "trace": 8479,
      "exhaust": 8480,
      "charged": 8481,
      "getic": 8482,
      "afghan": 8483,
      "distor": 8484,
      "bettie": 8485,
      "drake": 8486,
      "centers": 8487,
      "owned": 8488,
      "musician": 8489,
      "releases": 8490,
      "generations": 8491,
      "messed": 8492,
      "purple": 8493,
      "sunshine": 8494,
      "masses": 8495,
      "kov": 8496,
      "miniseries": 8497,
      "fifth": 8498,
      "neighbors": 8499,
      "tastes": 8500,
      "landscapes": 8501,
      "alcoholic": 8502,
      "excessive": 8503,
      "dictator": 8504,
      "mundane": 8505,
      "simultaneously": 8506,
      "dazz": 8507,
      "wret": 8508,
      "zi": 8509,
      "zes": 8510,
      "infin": 8511,
      "reson": 8512,
      "orphan": 8513,
      "edith": 8514,
      "acity": 8515,
      "vera": 8516,
      "roots": 8517,
      "butter": 8518,
      "firstly": 8519,
      "berlin": 8520,
      "angst": 8521,
      "mins": 8522,
      "voight": 8523,
      "lasted": 8524,
      "harmon": 8525,
      "definition": 8526,
      "godzilla": 8527,
      "christians": 8528,
      "judy": 8529,
      "located": 8530,
      "refused": 8531,
      "kenneth": 8532,
      "idio": 8533,
      "package": 8534,
      "property": 8535,
      "conflicts": 8536,
      "exploration": 8537,
      "crocodile": 8538,
      "osing": 8539,
      "pha": 8540,
      "plight": 8541,
      "rr": 8542,
      "insur": 8543,
      "enger": 8544,
      "beware": 8545,
      "sume": 8546,
      "nemes": 8547,
      "shin": 8548,
      "shack": 8549,
      "akshay": 8550,
      "awfully": 8551,
      "orton": 8552,
      "mayhem": 8553,
      "otion": 8554,
      "smell": 8555,
      "polished": 8556,
      "humble": 8557,
      "differently": 8558,
      "blacks": 8559,
      "traits": 8560,
      "compelled": 8561,
      "hanna": 8562,
      "sunny": 8563,
      "holm": 8564,
      "catchy": 8565,
      "protest": 8566,
      "wildly": 8567,
      "witnesses": 8568,
      "micro": 8569,
      "lifted": 8570,
      "attered": 8571,
      "manipulative": 8572,
      "evolution": 8573,
      "methods": 8574,
      "receives": 8575,
      "assigned": 8576,
      "wagner": 8577,
      "resources": 8578,
      "lens": 8579,
      "sig": 8580,
      "tang": 8581,
      "stale": 8582,
      "amir": 8583,
      "meas": 8584,
      "confin": 8585,
      "disappears": 8586,
      "surf": 8587,
      "triangle": 8588,
      "positions": 8589,
      "gled": 8590,
      "polish": 8591,
      "tempt": 8592,
      "dvds": 8593,
      "amazon": 8594,
      "pursuit": 8595,
      "1971": 8596,
      "maxim": 8597,
      "aussie": 8598,
      "satisfy": 8599,
      "crisp": 8600,
      "representation": 8601,
      "betrayal": 8602,
      "severely": 8603,
      "nonsens": 8604,
      "dilem": 8605,
      "bars": 8606,
      "crip": 8607,
      "frog": 8608,
      "lance": 8609,
      "naught": 8610,
      "pill": 8611,
      "andra": 8612,
      "eder": 8613,
      "oms": 8614,
      "amen": 8615,
      "roo": 8616,
      "map": 8617,
      "deranged": 8618,
      "horn": 8619,
      "objects": 8620,
      "stuart": 8621,
      "slice": 8622,
      "tracking": 8623,
      "secretly": 8624,
      "imaginable": 8625,
      "portions": 8626,
      "repeating": 8627,
      "julian": 8628,
      "dickens": 8629,
      "bravo": 8630,
      "clueless": 8631,
      "advanced": 8632,
      "astoun": 8633,
      "confidence": 8634,
      "gender": 8635,
      "mcl": 8636,
      "oly": 8637,
      "wart": 8638,
      "oft": 8639,
      "accompany": 8640,
      "unaware": 8641,
      "abused": 8642,
      "divine": 8643,
      "compassion": 8644,
      "poo": 8645,
      "uplifting": 8646,
      "cram": 8647,
      "flair": 8648,
      "raises": 8649,
      "olds": 8650,
      "trivial": 8651,
      "borg": 8652,
      "valid": 8653,
      "hyde": 8654,
      "ushi": 8655,
      "gged": 8656,
      "troubles": 8657,
      "petty": 8658,
      "industrial": 8659,
      "montgom": 8660,
      "widely": 8661,
      "apolo": 8662,
      "brooklyn": 8663,
      "harrison": 8664,
      "warriors": 8665,
      "improvement": 8666,
      "seldom": 8667,
      "duch": 8668,
      "wong": 8669,
      "reign": 8670,
      "tomato": 8671,
      "veron": 8672,
      "tering": 8673,
      "imitation": 8674,
      "abusive": 8675,
      "disliked": 8676,
      "wai": 8677,
      "romp": 8678,
      "lively": 8679,
      "prompt": 8680,
      "babies": 8681,
      "photos": 8682,
      "straightforward": 8683,
      "demonic": 8684,
      "juliet": 8685,
      "cruelty": 8686,
      "objective": 8687,
      "barrymore": 8688,
      "bunny": 8689,
      "miracle": 8690,
      "inducing": 8691,
      "exorcist": 8692,
      "israel": 8693,
      "neuro": 8694,
      "widescreen": 8695,
      "elvira": 8696,
      "montgomery": 8697,
      "jas": 8698,
      "oned": 8699,
      "ora": 8700,
      "chat": 8701,
      "bela": 8702,
      "abomin": 8703,
      "haired": 8704,
      "simplicity": 8705,
      "visited": 8706,
      "sublime": 8707,
      "corpses": 8708,
      "completed": 8709,
      "moron": 8710,
      "region": 8711,
      "milk": 8712,
      "policeman": 8713,
      "retired": 8714,
      "claiming": 8715,
      "ginger": 8716,
      "fascinated": 8717,
      "fifty": 8718,
      "companies": 8719,
      "employ": 8720,
      "healthy": 8721,
      "trademark": 8722,
      "tasteless": 8723,
      "golf": 8724,
      "femme": 8725,
      "dame": 8726,
      "heston": 8727,
      "nand": 8728,
      "pour": 8729,
      "enhan": 8730,
      "ambi": 8731,
      "rupert": 8732,
      "jackass": 8733,
      "greedy": 8734,
      "snatch": 8735,
      "ceiving": 8736,
      "virtual": 8737,
      "jumped": 8738,
      "accomplish": 8739,
      "hartley": 8740,
      "alternate": 8741,
      "lized": 8742,
      "harmless": 8743,
      "crazed": 8744,
      "coincidence": 8745,
      "baffl": 8746,
      "hound": 8747,
      "lass": 8748,
      "uwe": 8749,
      "entit": 8750,
      "alled": 8751,
      "mentions": 8752,
      "joins": 8753,
      "irene": 8754,
      "stranded": 8755,
      "iously": 8756,
      "raising": 8757,
      "probable": 8758,
      "slack": 8759,
      "annoy": 8760,
      "billed": 8761,
      "stunned": 8762,
      "squir": 8763,
      "assured": 8764,
      "substant": 8765,
      "transp": 8766,
      "invented": 8767,
      "voyage": 8768,
      "nemesis": 8769,
      "dates": 8770,
      "nbc": 8771,
      "opt": 8772,
      "beau": 8773,
      "unle": 8774,
      "unra": 8775,
      "rides": 8776,
      "nephe": 8777,
      "exposition": 8778,
      "consum": 8779,
      "click": 8780,
      "desires": 8781,
      "specially": 8782,
      "minus": 8783,
      "matically": 8784,
      "rav": 8785,
      "insanity": 8786,
      "interestingly": 8787,
      "addiction": 8788,
      "miike": 8789,
      "passengers": 8790,
      "exceptions": 8791,
      "samuel": 8792,
      "1981": 8793,
      "1993": 8794,
      "occasions": 8795,
      "randomly": 8796,
      "frost": 8797,
      "hughes": 8798,
      "ambiguous": 8799,
      "precisely": 8800,
      "dawson": 8801,
      "restored": 8802,
      "wretched": 8803,
      "rour": 8804,
      "wink": 8805,
      "inability": 8806,
      "adle": 8807,
      "unseen": 8808,
      "females": 8809,
      "mans": 8810,
      "mete": 8811,
      "apple": 8812,
      "perpet": 8813,
      "conan": 8814,
      "astaire": 8815,
      "blink": 8816,
      "realm": 8817,
      "carly": 8818,
      "underwater": 8819,
      "stiller": 8820,
      "aneous": 8821,
      "deserving": 8822,
      "dealer": 8823,
      "eugene": 8824,
      "sarandon": 8825,
      "accurately": 8826,
      "complexity": 8827,
      "complaints": 8828,
      "olivier": 8829,
      "statue": 8830,
      "symbolic": 8831,
      "phillips": 8832,
      "destroying": 8833,
      "nonsensical": 8834,
      "75": 8835,
      "pages": 8836,
      "trend": 8837,
      "bee": 8838,
      "belly": 8839,
      "noises": 8840,
      "hea": 8841,
      "deer": 8842,
      "demise": 8843,
      "abby": 8844,
      "diet": 8845,
      "exhibit": 8846,
      "pling": 8847,
      "prev": 8848,
      "bergh": 8849,
      "chooses": 8850,
      "atten": 8851,
      "velvet": 8852,
      "spoon": 8853,
      "recommendation": 8854,
      "heartbreaking": 8855,
      "directions": 8856,
      "1984": 8857,
      "penny": 8858,
      "teachers": 8859,
      "kapoor": 8860,
      "terminator": 8861,
      "debate": 8862,
      "muddled": 8863,
      "dalton": 8864,
      "fantasies": 8865,
      "ement": 8866,
      "gur": 8867,
      "hmer": 8868,
      "jur": 8869,
      "zu": 8870,
      "aled": 8871,
      "seas": 8872,
      "behold": 8873,
      "amused": 8874,
      "confir": 8875,
      "opic": 8876,
      "versity": 8877,
      "vocal": 8878,
      "walsh": 8879,
      "moronic": 8880,
      "labe": 8881,
      "earl": 8882,
      "regards": 8883,
      "simpson": 8884,
      "masterpieces": 8885,
      "christina": 8886,
      "rolls": 8887,
      "homes": 8888,
      "respective": 8889,
      "constit": 8890,
      "referred": 8891,
      "banal": 8892,
      "darn": 8893,
      "hawk": 8894,
      "concepts": 8895,
      "distribution": 8896,
      "egyptian": 8897,
      "injured": 8898,
      "aristocr": 8899,
      "rourke": 8900,
      "gap": 8901,
      "ée": 8902,
      "attor": 8903,
      "enna": 8904,
      "tox": 8905,
      "chand": 8906,
      "whim": 8907,
      "rooney": 8908,
      "gems": 8909,
      "plum": 8910,
      "shat": 8911,
      "shouting": 8912,
      "internal": 8913,
      "anski": 8914,
      "shod": 8915,
      "shore": 8916,
      "monty": 8917,
      "biting": 8918,
      "leaders": 8919,
      "tempor": 8920,
      "denzel": 8921,
      "murdering": 8922,
      "bibl": 8923,
      "pleasing": 8924,
      "doubts": 8925,
      "1978": 8926,
      "posted": 8927,
      "businessman": 8928,
      "designs": 8929,
      "macbeth": 8930,
      "lengthy": 8931,
      "kramer": 8932,
      "route": 8933,
      "tacky": 8934,
      "inevitably": 8935,
      "jenny": 8936,
      "ponyo": 8937,
      "attorney": 8938,
      "?'": 8939,
      "hindi": 8940,
      "lup": 8941,
      "vag": 8942,
      "wwe": 8943,
      "wings": 8944,
      "remarks": 8945,
      "edit": 8946,
      "whack": 8947,
      "liest": 8948,
      "unpredictable": 8949,
      "filth": 8950,
      "filler": 8951,
      "rook": 8952,
      "ules": 8953,
      "therap": 8954,
      "overlook": 8955,
      "realised": 8956,
      "interests": 8957,
      "shoe": 8958,
      "misleading": 8959,
      "warrant": 8960,
      "carey": 8961,
      "walt": 8962,
      "victory": 8963,
      "bike": 8964,
      "belushi": 8965,
      "1987": 8966,
      "culmin": 8967,
      "immediate": 8968,
      "informed": 8969,
      "domestic": 8970,
      "pierre": 8971,
      "kathy": 8972,
      "fruit": 8973,
      "odyssey": 8974,
      "40s": 8975,
      "cad": 8976,
      "kie": 8977,
      "lunch": 8978,
      "raf": 8979,
      "ucin": 8980,
      "ardo": 8981,
      "brush": 8982,
      "riot": 8983,
      "meal": 8984,
      "weir": 8985,
      "carlos": 8986,
      "gency": 8987,
      "buzz": 8988,
      "custom": 8989,
      "willie": 8990,
      "sara": 8991,
      "positively": 8992,
      "jacket": 8993,
      "stumbled": 8994,
      "ignorance": 8995,
      "preachy": 8996,
      "confrontation": 8997,
      "atlantis": 8998,
      "silliness": 8999,
      "$$": 9000,
      ")!": 9001,
      "mick": 9002,
      "oe": 9003,
      "pel": 9004,
      "rou": 9005,
      "rance": 9006,
      "enig": 9007,
      "eday": 9008,
      "/>***": 9009,
      "undead": 9010,
      "hob": 9011,
      "hoot": 9012,
      "hers": 9013,
      "exped": 9014,
      "sometime": 9015,
      "conscience": 9016,
      "gris": 9017,
      "ett": 9018,
      "steady": 9019,
      "supported": 9020,
      "profanity": 9021,
      "ballet": 9022,
      "1973": 9023,
      "suffice": 9024,
      "1988": 9025,
      "1969": 9026,
      "hallucin": 9027,
      "adopted": 9028,
      "resemble": 9029,
      "quietly": 9030,
      "galax": 9031,
      "caliber": 9032,
      "audition": 9033,
      "bogart": 9034,
      "kissing": 9035,
      "robbins": 9036,
      "dysfunctional": 9037,
      "(?)": 9038,
      "mers": 9039,
      "ume": 9040,
      "vital": 9041,
      "wu": 9042,
      "wander": 9043,
      "brat": 9044,
      "leap": 9045,
      "demented": 9046,
      "comings": 9047,
      "proving": 9048,
      "myr": 9049,
      "clin": 9050,
      "interactions": 9051,
      "medic": 9052,
      "syd": 9053,
      "merits": 9054,
      "simpsons": 9055,
      "volta": 9056,
      "containing": 9057,
      "literary": 9058,
      "ranch": 9059,
      "primitive": 9060,
      "investigating": 9061,
      "neighbour": 9062,
      "chuckle": 9063,
      "losers": 9064,
      "unexpectedly": 9065,
      "knocked": 9066,
      "assassination": 9067,
      "quarter": 9068,
      "grainy": 9069,
      "entitled": 9070,
      "4th": 9071,
      "nap": 9072,
      "nag": 9073,
      "pc": 9074,
      "sale": 9075,
      "tapes": 9076,
      "vall": 9077,
      "yon": 9078,
      "theor": 9079,
      "chal": 9080,
      "acclaimed": 9081,
      "abled": 9082,
      "scifi": 9083,
      "fulfill": 9084,
      "oppress": 9085,
      "simmons": 9086,
      "wardrobe": 9087,
      "morse": 9088,
      "feld": 9089,
      "shaking": 9090,
      "crimin": 9091,
      "technicol": 9092,
      "swan": 9093,
      "1982": 9094,
      "subjected": 9095,
      "describing": 9096,
      "rambo": 9097,
      "fascination": 9098,
      "hackney": 9099,
      "groo": 9100,
      "significance": 9101,
      "demonstrates": 9102,
      "loyalty": 9103,
      "oriented": 9104,
      "obligatory": 9105,
      "fundamental": 9106,
      "lackluster": 9107,
      "unravel": 9108,
      "meteor": 9109,
      "!,": 9110,
      "(!)": 9111,
      "dwar": 9112,
      "kle": 9113,
      "pump": 9114,
      "sending": 9115,
      "vain": 9116,
      "issa": 9117,
      "whale": 9118,
      "vein": 9119,
      "degrad": 9120,
      "hogan": 9121,
      "sugar": 9122,
      "urs": 9123,
      "wholly": 9124,
      "ctic": 9125,
      "auf": 9126,
      "stopping": 9127,
      "screens": 9128,
      ".......": 9129,
      "shiel": 9130,
      "beatty": 9131,
      "brutality": 9132,
      "bombs": 9133,
      "mildred": 9134,
      "fifties": 9135,
      "formative": 9136,
      "patriot": 9137,
      "deceased": 9138,
      "snipes": 9139,
      "rusty": 9140,
      "prominent": 9141,
      "empathy": 9142,
      "recycled": 9143,
      "30s": 9144,
      "crown": 9145,
      "dic": 9146,
      "ivan": 9147,
      "saint": 9148,
      "anchor": 9149,
      "erika": 9150,
      "remove": 9151,
      "ensure": 9152,
      "stim": 9153,
      "devices": 9154,
      "poon": 9155,
      "herzo": 9156,
      "frances": 9157,
      "preposter": 9158,
      "grams": 9159,
      "spawn": 9160,
      "disci": 9161,
      "owners": 9162,
      "leted": 9163,
      "singers": 9164,
      "addicted": 9165,
      "northern": 9166,
      "heartwarming": 9167,
      "portrayals": 9168,
      "venture": 9169,
      "brosn": 9170,
      "strongest": 9171,
      "locals": 9172,
      "delicate": 9173,
      "assumed": 9174,
      "authorities": 9175,
      "lauren": 9176,
      "drinks": 9177,
      "frightened": 9178,
      "syndr": 9179,
      "consciousness": 9180,
      "puzzle": 9181,
      "inexplicably": 9182,
      "gandhi": 9183,
      "lifeless": 9184,
      "paradise": 9185,
      "biblical": 9186,
      "hackneyed": 9187,
      "brosnan": 9188,
      "!'": 9189,
      "bod": 9190,
      "lush": 9191,
      "reeves": 9192,
      "adore": 9193,
      "unlikable": 9194,
      "abdu": 9195,
      "dope": 9196,
      "manuel": 9197,
      "teams": 9198,
      "deriv": 9199,
      "items": 9200,
      "yep": 9201,
      "dont": 9202,
      "insip": 9203,
      "extensive": 9204,
      "ruby": 9205,
      "rukh": 9206,
      "travolta": 9207,
      "explores": 9208,
      "ttes": 9209,
      "crashes": 9210,
      "olivia": 9211,
      "transformed": 9212,
      "brady": 9213,
      "someday": 9214,
      "chorus": 9215,
      "muppets": 9216,
      "hulk": 9217,
      "pronoun": 9218,
      "beverly": 9219,
      "dess": 9220,
      "grip": 9221,
      "hans": 9222,
      "hats": 9223,
      "mck": 9224,
      "odo": 9225,
      "witt": 9226,
      "thiev": 9227,
      "inaccurate": 9228,
      "anch": 9229,
      "enthr": 9230,
      "andering": 9231,
      "macho": 9232,
      "coaster": 9233,
      "sson": 9234,
      "clad": 9235,
      "thrust": 9236,
      "mari": 9237,
      "monu": 9238,
      "choppy": 9239,
      "athlet": 9240,
      "suburb": 9241,
      "additional": 9242,
      "hara": 9243,
      "danes": 9244,
      "eleven": 9245,
      "shares": 9246,
      "dreck": 9247,
      "presenting": 9248,
      "suspend": 9249,
      "collector": 9250,
      "sooner": 9251,
      "drove": 9252,
      "placing": 9253,
      "racing": 9254,
      "stalker": 9255,
      "computers": 9256,
      "undant": 9257,
      "freaks": 9258,
      "convention": 9259,
      "buffalo": 9260,
      "aaaa": 9261,
      "insightful": 9262,
      "gregory": 9263,
      "feminist": 9264,
      "gulli": 9265,
      "provocative": 9266,
      "herzog": 9267,
      "insipid": 9268,
      "//": 9269,
      "aute": 9270,
      "bou": 9271,
      "hend": 9272,
      "jill": 9273,
      "sic": 9274,
      "skept": 9275,
      "tip": 9276,
      "inconsistent": 9277,
      "loop": 9278,
      "hep": 9279,
      "amit": 9280,
      "hostage": 9281,
      "sums": 9282,
      "neath": 9283,
      "tramp": 9284,
      "perman": 9285,
      "iffer": 9286,
      "shre": 9287,
      "spill": 9288,
[...]
